[PAD]
[unused1]
[unused2]
[unused3]
[unused4]
[unused5]
[unused6]
[unused7]
[unused8]
[unused9]
[unused10]
[unused11]
[unused12]
[unused13]
[unused14]
[unused15]
[unused16]
[unused17]
[unused18]
[unused19]
[unused20]
[unused21]
[unused22]
[unused23]
[unused24]
[unused25]
[unused26]
[unused27]
[unused28]
[unused29]
[unused30]
[unused31]
[unused32]
[unused33]
[unused34]
[unused35]
[unused36]
[unused37]
[unused38]
[unused39]
[unused40]
[unused41]
[unused42]
[unused43]
[unused44]
[unused45]
[unused46]
[unused47]
[unused48]
[unused49]
[unused50]
[unused51]
[unused52]
[unused53]
[unused54]
[unused55]
[unused56]
[unused57]
[unused58]
[unused59]
[unused60]
[unused61]
[unused62]
[unused63]
[unused64]
[unused65]
[unused66]
[unused67]
[unused68]
[unused69]
[unused70]
[unused71]
[unused72]
[unused73]
[unused74]
[unused75]
[unused76]
[unused77]
[unused78]
[unused79]
[unused80]
[unused81]
[unused82]
[unused83]
[unused84]
[unused85]
[unused86]
[unused87]
[unused88]
[unused89]
[unused90]
[unused91]
[unused92]
[unused93]
[unused94]
[unused95]
[unused96]
[unused97]
[unused98]
[unused99]
[UNK]
[CLS]
[SEP]
[MASK]
о
е
а
и
н
т
с
р
л
в
к
м
д
п
у
я
ы
,
г
ь
б
з
.
ч
й
ж
х
ш
ю
-
ц
щ
э
С
В
ф
П
1
К
Н
0
А
О
М
Р
2
»
«
"
Д
Т
И
e
Б
)
9
(
?
:
Г
a
o
ё
5
3
r
i
4
t
У
Л
n
Е
!
8
—
6
Ф
7
s
З
Э
Я
l
u
Ч
Х
Ш
ъ
d
…
h
c
/
m
;
I
p
S
g
–
і
A
y
Ц
T
%
Ж
b
f
C
k
R
w
M
E
Ю
N
P
v
B
D
F
X
W
G
V
L
H
_
O
Đ
́
U
&
x
]
[
=
Й
z
'
K
q
№
“
+
$
ї
J
>
°
*
Ń
”
Y
­
є
#
j
<
„
’
ѕ
Ы
Ь
@
Z
Щ
µ
|
‚
І
Ѕ
Q
−
Ђ
ž
Ѓ
•

²
ľ
→
¸
é
˝

ј
©
ў
€
ґ

}
{
ѣ

ť
Ё
·
˛
​
ѓ
\
‹
Џ
ş
±
ź
´

ż
Њ

~
ü
‡
×
‘
ä

ł
á
š
α
Ъ
̶
Є

ą

†
ο
ˇ
ó
¶
ö

^
³
£
è
à
Ћ
`
ν
§
í
ι
ś
ā
τ
―
�
̆
ε
ρ
‰
ς
Â
ē
˗
😂

σ
️
½

ç
λ
##о
##е
##а
##и
##н
##т
##с
##р
##л
##в
##к
##м
##д
##п
##у
##я
##ы
##,
##г
##ь
##б
##з
##.
##ч
##й
##ж
##х
##ш
##ю
##-
##ц
##щ
##э
##С
##В
##ф
##П
##1
##К
##Н
##0
##А
##О
##М
##Р
##2
##»
##«
##"
##Д
##Т
##И
##e
##Б
##)
##9
##(
##?
##:
##Г
##a
##o
##ё
##5
##3
##r
##i
##4
##t
##У
##Л
##n
##Е
##!
##8
##—
##6
##Ф
##7
##s
##З
##Э
##Я
##l
##u
##Ч
##Х
##Ш
##ъ
##d
##…
##h
##c
##/
##m
##;
##I
##p
##S
##g
##–
##і
##A
##y
##Ц
##T
##%
##Ж
##b
##f
##C
##k
##R
##w
##M
##E
##Ю
##N
##P
##v
##B
##D
##F
##X
##W
##G
##V
##L
##H
##_
##O
##Đ
##́
##U
##&
##x
##]
##[
##=
##Й
##z
##'
##K
##q
##№
##“
##+
##$
##ї
##J
##>
##°
##*
##Ń
##”
##Y
##­
##є
###
##j
##<
##„
##’
##ѕ
##Ы
##Ь
##@
##Z
##Щ
##µ
##|
##‚
##І
##Ѕ
##Q
##−
##Ђ
##ž
##Ѓ
##•
##
##²
##ľ
##→
##¸
##é
##˝
##
##ј
##©
##ў
##€
##ґ
##
##}
##{
##ѣ
##
##ť
##Ё
##·
##˛
##​
##ѓ
##\
##‹
##Џ
##ş
##±
##ź
##´
##
##ż
##Њ
##
##~
##ü
##‡
##×
##‘
##ä
##
##ł
##á
##š
##α
##Ъ
##̶
##Є
##
##ą
##
##†
##ο
##ˇ
##ó
##¶
##ö
##
##^
##³
##£
##è
##à
##Ћ
##`
##ν
##§
##í
##ι
##ś
##ā
##τ
##―
##�
##̆
##ε
##ρ
##‰
##ς
##Â
##ē
##˗
##😂
##
##σ
##️
##½
##
##ç
##λ
##то
##ен
##ст
##ра
##ко
##но
##ро
##го
по
##ре
##ли
##ка
##ни
##ет
на
##ва
##ла
##ри
##ль
##ло
##та
##ны
##за
##на
##те
##во
не
##ть
##ер
##да
##ки
##ся
##ле
##ени
##ти
за
ко
##ми
##ви
##ру
##ем
##ди
про
со
ра
##не
##де
что
##ля
го
то
##ци
##ма
##сь
от
##до
##ско
во
##же
##ве
##мо
бы
до
ка
##хо
при
##бо
##по
##си
##ста
##ча
##ну
##сти
##чи
##че
об
##се
##ры
##ду
вы
мо
##ски
##ши
##сто
##ей
##лу
##жи
##ку
из
##ной
это
та
пре
##па
##ме
##га
##ере
##со
ре
те
##ения
##ного
##ных
##тель
но
##ги
##вы
##сть
##са
##щи
##ше
##му
##ня
##ря
##ный
##жа
##пи
По
##лю
бо
##ще
##ные
раз
##ту
##мен
под
##ение
##ств
ма
кото
ни
##лся
##ты
##ют
все
##зи
##вер
##би
де
как
##зо
##ется
ме
да
##лен
ста
сво
##сси
се
он
##пе
ли
са
##об
##сле
##ции
##каза
##ство
##це
ми
его
пере
##ар
##ке
##бы
ст
##ша
##ров
##бе
##ным
##ться
бу
так
хо
##ды
ве
##ской
##нов
На
##ния
##жно
си
##гда
##су
20
##ба
##ков
##он
же
##лько
##вет
рас
бе
##мы
##рова
##ска
##пу
##ского
##ная
##ное
##ор
пред
##про
для
Ро
##ща
##ран
##ак
##ствен
19
ру
ро
##лы
##ень
##кой
##гу
которы
##ние
##лет
##дет
сто
##лись
##зы
##жен
##ном
##ха
су
##ца
кон
##спо
##кра
##ства
года
##рав
ин
ви
##лась
##тов
##гра
##ву
##лось
воз
##ан
##ский
##мя
##тся
Но
##ему
##ходи
па
##сли
##ден
че
жи
ва
вре
од
дру
было
был
##бу
##тив
##вать
##зу
зна
##сту
##ром
##ности
##став
##фи
лю
##ских
##ную
Росси
##ком
ча
##аль
##тя
##нима
пра
##она
##вой
##ющи
##мер
##том
##шь
##ск
Ко
после
ком
##зна
##лей
боль
##нии
дол
##жет
##чно
Во
пер
мы
##вши
ты
##цен
##стви
слу
рабо
##дь
##дер
##ении
мен
201
##лове
Ка
##ность
она
##вя
ку
Мо
сло
уже
только
или
гла
Не
##ин
##стоя
их
##дя
##сы
сооб
За
##ция
##ник
году
стра
полу
пу
##вал
прои
##мет
##дин
ле
##сте
##ления
##пре
они
##рой
##бя
##гла
ту
##ман
челове
##лек
##пы
сказа
Со
##чен
ее
##пер
##ев
му
##род
##кры
чем
##вори
##тра
время
Ма
##стави
чтобы
обра
##жда
##ными
этом
будет
##рен
##ские
пи
меня
еще
Он
ос
само
ди
##рии
фи
##ника
вз
##ек
##ству
нача
Ра
##стра
##стре
когда
Да
##ней
Это
##при
ав
были
пла
##цы
лет
##лее
##ются
##прав
##дар
##тельно
##вали
##нее
##тор
##мот
##лов
России
ду
##ге
##тер
##бли
##дела
##вля
оста
##ред
##спе
##нь
##яви
##руп
была
##ний
##ская
свои
##стро
ис
может
также
если
##вая
ба
вер
##жу
##тиче
сле
##дом
##ений
эти
##нд
##ению
того
чи
оч
##шен
##ление
мне
##00
пол
##рга
##льно
То
вс
##нова
Бо
##кон
##хи
том
##мени
##ском
##фор
##жду
есть
которые
##вых
При
тре
##er
поли
##дов
Укра
##шо
##вые
##три
пе
##вает
##зова
спо
объ
##ез
гра
##ета
Ми
##рь
##сла
##пра
кра
##сс
##нул
##жд
##зво
##дова
голо
##бря
##цию
##вый
который
##пол
##ят
без
поч
где
пар
говори
Та
ок
##дно
##тому
##вно
цен
##рта
Украи
этого
##чь
Са
##ением
##ких
обла
##вед
ак
Ни
уча
##бра
ну
ки
нет
##сты
очень
даже
##ил
Как
Го
более
##ников
##кие
##теля
помо
##вого
испо
##дей
свя
##кую
##чита
##кого
дела
##ете
чу
До
##сов
тем
быть
ар
##тро
им
##вро
сторо
дей
##лом
тер
ему
##кан
име
Ва
орга
##цо
##сно
обо
буду
##циаль
##чу
18
други
вой
##гля
нас
##ники
##ене
##телей
авто
себя
можно
жиз
##тия
Про
##час
пос
##зда
сказал
##ью
200
це
##логи
##ставля
##ена
##рт
росси
га
##кто
Вы
##цу
##зыва
##судар
##шей
##ейчас
исто
ско
подо
##лли
дан
##клю
##цион
него
получи
##сло
человек
эк
##соб
##стве
горо
жен
отно
##можно
##шу
##шел
сдела
##его
##шего
##жения
Ки
пока
Па
вла
##жение
##тели
коман
неско
##води
между
слова
тех
Так
просто
##вест
##писа
прави
##нако
случа
##ках
##дол
##ит
расс
них
##in
##нови
##ками
##гово
там
кто
работа
##зиден
##бой
##ским
##тери
лу
Ве
поло
##фе
##дел
вопро
##an
##тно
##тере
ла
##ерез
##чего
##шения
сообща
##коно
рай
сов
##нг
##рая
ответ
##ван
день
##енно
##емы
##ступ
государ
которо
##ким
Си
больше
##зя
##менно
Ку
##нк
много
##реди
россий
##цев
Все
один
10
явля
Что
спе
##пера
##кла
##дня
##ское
два
ло
##зе
##бор
##дели
##пла
##шение
##кое
##кий
Если
этот
уда
груп
##ён
##льта
Об
сер
##ья
Мы
каж
##держа
против
могу
##али
##нет
послед
##ять
##яс
дет
##емо
##сса
##йте
пло
заяви
созда
Ба
иг
##on
##мери
##вод
Алек
##ут
##вым
##кая
##перь
органи
##вое
компа
##ним
##щен
##стя
##бира
над
##мента
Хо
вот
##ША
##ших
##рия
встре
чет
действи
Она
США
##щей
##пас
Ви
Ли
##рон
##щего
всего
всех
От
##ряд
##йти
##льной
Ме
##ходя
счита
##торы
ша
тру
##слу
##тре
друго
приня
хоро
##чение
##оне
##чения
Ну
##лага
вос
несколько
##десь
через
##or
сейчас
би
Ре
три
##тан
##форма
Бе
##чет
##нут
##мотре
15
обе
откры
##кре
ти
##вра
##яв
##мент
##зульта
Моск
##льного
президен
##ций
мог
##лем
Пу
##руг
руб
##лаго
##тру
продол
исполь
##лн
доро
себе
##стер
##рован
##en
дву
##ешь
##рак
возможно
Од
этой
##вом
##нию
##тин
кор
Те
##нес
соб
Ин
согла
##чем
фор
ию
##от
##шли
результа
##ющий
мини
гу
##льный
##нец
##вала
луч
##ющих
находи
##мина
Пет
поня
##вший
вме
##скую
##рий
##тен
долж
Га
##лин
##прави
стро
##ход
##бер
##станов
сем
ры
##вар
##рей
##рито
сред
представи
области
сообщи
тоже
высо
##чина
##стов
##щу
##ar
своей
##льных
##ген
теле
состоя
кар
дви
##нулся
После
переда
кри
##тября
вто
дума
##той
свою
ад
##ню
самы
глав
стал
сист
##ступи
перед
сы
##ссо
##вания
12
##циона
Евро
##проси
ничего
##рабо
##кономи
##щее
##нен
надо
Ар
##шло
##ниче
оказа
необ
##лия
##ходит
Се
Украины
Из
##коло
укра
зем
наз
##нем
побе
нем
место
##ети
воен
извест
##жал
террито
##he
##вор
будут
##им
которая
##ному
уби
ше
тыся
Вла
Ты
##ровать
##стей
##ством
смо
##ющие
##ружи
##вести
##шая
совер
следу
здесь
##вич
##тем
тут
Ла
моло
коро
##сом
##дера
тра
##СС
##туа
##лез
офи
руко
##чной
##хва
##нер
##нием
##es
##стран
##вели
информа
глаза
##воз
##ложи
##твер
##ностью
бли
##лан
##ступа
нам
##al
потом
##at
17
##него
суще
##раз
тебя
##пло
199
##ссе
##мой
оче
##тельства
обще
##пад
эта
заявил
показа
##публи
Де
##зации
женщи
##вета
Они
кла
которых
##нуть
##роме
Ру
##мерикан
кре
реши
Су
мно
лишь
##пусти
Ан
пы
##ях
муж
##бле
спи
дело
##льные
##грам
экономи
##следова
##дой
вас
служ
##них
неко
##тий
интере
##чки
ней
##зом
##нечно
##ян
понима
является
теперь
реги
##шки
##нали
бра
##шла
##труд
11
жизни
##чных
##вают
призна
людей
потому
год
##хра
мат
бан
##ческой
РФ
##зан
Ле
##лено
прав
позво
разви
Сер
##гов
сообщает
2015
##бро
сам
##сков
Пер
Бу
##вание
чер
чемпи
Лу
сего
сра
Ста
##тки
##меча
тот
произво
##шка
##зд
распо
##мни
ей
##нула
##стью
##щения
хотя
дома
благо
##фо
16
##жида
##жден
##щая
Пре
тя
ха
##фа
матери
нау
гру
которой
города
##вается
сегодня
вам
успе
##ждения
тор
##дума
##ено
##тии
##ственно
Алекса
отмет
Вот
право
##чер
##ваться
маши
##еха
ним
##рд
ска
##дца
вра
оп
##ье
вне
уни
##вин
около
##вших
занима
ог
ря
##шие
##этому
кол
своих
##рук
##дель
проек
обы
##ший
человека
такой
##it
##вари
ника
двух
могут
фа
##хов
необходи
мест
Александ
Мар
##ёт
почти
дере
чего
рус
Влади
времени
##вую
поль
сен
город
##ган
игра
значи
##ческих
пов
##кт
Однако
милли
управ
ситуа
опре
тогда
бро
гражда
нужно
пря
настоя
##лены
жу
украин
##рую
уго
проис
##кло
2014
фо
сотруд
фина
ули
194
##сит
##om
##чный
##ём
тебе
защи
американ
##сем
страны
14
насе
##ерт
30
##чные
##стан
стороны
##ктор
##дить
##ru
##ху
##ток
именно
словам
##седа
стре
зо
##ственной
всегда
чув
свой
##ясни
шко
##мини
опера
спа
##тора
Ново
ри
##личе
тран
##тить
своего
##держи
комп
Фе
фак
случае
##тур
Дж
люди
##бур
глу
13
##вшись
##из
Кон
Когда
##туры
её
##мии
других
ху
основ
##обра
##ответ
##прия
даль
жа
части
стран
##щение
##рах
взгля
участи
##рю
направ
##мов
уви
##шим
##обще
которого
смер
##вле
##ема
Ту
##чка
ци
##щих
##блю
##тил
совет
##вался
уров
недо
произо
пода
##вери
участ
ши
Ди
##рави
##сут
сту
нико
##щё
##щем
##кова
##ческого
Нет
меся
бое
##виа
##гре
##ствия
вся
спроси
Владими
язы
мира
Му
##тие
нее
пор
##щий
##воря
буд
##le
ги
25
коми
каче
##ствие
помощ
##юсь
хоте
ан
стать
отли
попа
##будь
деся
##re
доста
##ложен
##народ
нео
##цией
экс
програм
##рио
##рок
##нами
вместе
ино
##скому
##чного
внима
уг
##кам
Ха
##лий
кни
##слови
клу
одно
жизнь
проце
рублей
этих
Фран
##st
пыта
всё
прода
ян
##смот
должно
##ic
##жать
виде
должен
##чить
дер
замет
##бре
##ствует
##нача
##тиво
##тельство
многи
Кра
безо
обя
должны
пробле
##чил
##утбо
неза
ге
какой
иск
любо
нибудь
##ница
момент
##скими
прекра
ведь
##лыша
##енера
соответ
жур
##кро
роди
##пита
##вшего
##ot
##лена
способ
##вшие
сразу
##деть
тысяч
зада
большо
вели
##тами
##нах
четы
рассказа
нару
##имо
##ору
часть
закон
вопрос
Россия
##еры
##лении
дея
собой
мн
круп
одной
##дви
сте
Ду
заня
мене
##ясь
предпо
наде
##пример
##тера
##ске
##шин
##кси
##пута
Для
лег
##того
интер
мар
непо
Его
евро
вообще
сла
произ
##онов
конце
преж
янва
свет
собствен
##министра
Нико
Лю
##моби
почему
чемпиона
снова
филь
хорошо
компании
выра
##спубли
либо
##дии
сви
##воль
уч
Гер
##дут
##нитель
окру
ещё
похо
Анд
##вел
строи
ради
##ены
вклю
Че
данным
##чал
футбо
территории
##фф
составля
##пере
##чей
##рию
пле
мя
##жды
работы
Гла
появи
образом
фев
всем
однако
##зад
некоторы
##кти
полити
жела
##шее
##рев
сбор
сме
гор
одного
##кс
ус
осо
##дра
войны
эту
##ницы
свобо
##ремен
власти
февра
обна
##лии
Ло
авгу
##строй
весь
##рует
услови
##ститу
выбо
ново
выпол
другой
сли
##лки
пресс
##ou
##шую
##графи
заклю
##бави
кру
##ссии
стало
назад
##ведения
Под
конечно
мет
##един
##тый
##бри
##шем
##мом
##ёл
никогда
##цей
числе
гото
восто
##тай
особ
знаю
уста
места
198
связи
##тически
##что
##лик
##тон
##рами
##шении
част
элек
##тных
взя
этим
пожа
Ри
образова
доку
##явля
дека
сти
сказать
поги
##чин
##рин
##пей
написа
##ником
люби
##пря
##лья
тро
##пуска
совершен
шта
млн
ноя
нор
бере
совсем
учи
изда
##ляр
##грани
решение
Вер
сентября
##мена
Бы
хозя
иде
##готов
##ющей
официаль
политиче
конф
##жении
##стр
##ющим
автомоби
##боль
Ранее
##говори
##зии
посе
называ
##стой
##ющего
количе
##чку
##шком
неу
апре
Кроме
фе
##дил
получа
площа
режи
перио
##цов
финан
продолжа
расска
дерев
лучше
##рам
среди
подоб
стали
отде
граждан
национа
##is
дости
мир
противо
##жной
стоя
##дит
долла
##доро
##тр
деятель
одна
мину
увер
##ческие
##ac
##там
сделать
Кар
##телем
необходимо
##лла
##ческий
попы
стар
##нно
возду
результате
##циали
##жей
стан
##лый
##лого
##веден
##ровал
##слен
уди
собира
сообщил
##рот
окон
тяже
подня
##нить
писа
опреде
##щие
пози
такое
##ску
##или
безопас
Петер
##точно
разме
четыре
Мне
##нулась
##лой
узна
##ёр
##ственного
разли
деле
##их
тому
дня
тол
месте
начина
первый
другие
##лень
##лета
##нице
##нал
основа
Ав
Сан
##пом
куль
материа
Пи
свое
##раб
обеспе
своим
##вен
зако
22
предо
упо
##над
род
затем
осу
##нения
аген
менее
##тура
Вели
##ристи
##вез
закры
21
пя
##ить
фу
##лит
две
повер
кры
пример
представля
кур
бес
возра
км
##ель
##ила
соста
сни
скоро
администра
196
193
00
фото
##зов
##вались
которое
улы
принима
197
состав
таки
Кры
##мыш
##льное
##рит
руки
заяв
имеет
##чены
утвер
##зывает
##el
говорит
##тах
##сколь
##циа
##тельной
24
##стри
генера
##кус
неме
такие
организа
рез
##лок
##кнул
##держ
быстро
##нок
##льная
контро
прин
удо
потре
октября
делать
международ
##пада
ожида
##ственный
##дук
Россий
поме
кажды
назна
сами
##ум
котором
##ева
100
##чат
авиа
использова
каза
мая
стала
сказала
##ter
наблю
##ССР
##шно
производ
##льным
деву
##ницу
стол
еди
установ
газ
##жем
завер
преступ
самом
##il
##струк
##ствовать
исклю
начала
президент
Ти
говоря
исследова
долго
кос
##пли
мень
никто
##тых
##йдет
профе
января
лицо
серь
сезо
ито
запре
пора
куда
ор
дире
находится
бю
оружи
##част
##матри
уж
мол
Раз
памя
посмотре
проводи
##сен
##as
которую
##тые
ск
##хода
мой
вд
##am
возвра
бри
тво
##ждение
районе
тур
##вобо
вол
##дать
##зма
напо
убе
аль
##тар
музы
отметил
региона
таких
народ
##еру
февраля
##ствии
президента
Никола
друг
##тина
##ствовал
Пере
##ИА
##виси
постоя
кли
района
измен
Мак
##рения
##так
центра
##нт
##ленно
##нам
актив
собы
##дро
августа
##лами
поэтому
##дал
Мин
второй
живо
неф
преду
специаль
23
пара
##жных
##рования
Новости
##сил
##еди
пунк
получил
стоит
слишком
энер
##рее
##точ
##щую
ды
##тал
##дят
##нка
деньги
например
смотре
группы
депута
отмеча
хи
социаль
50
##след
внут
увели
##стно
объек
ны
комна
192
коло
собра
##вид
види
детей
##лев
харак
Пред
195
##et
##тельный
##йн
меди
##каз
##нди
Боль
Пе
##нил
##ed
марта
Гу
равно
реаль
##говор
Ге
источ
##лл
июля
##ктора
##чие
##еты
##лда
пять
##вало
##тая
##жай
добави
##док
##щении
##id
зда
годы
Герма
мл
ночь
наи
миро
##ol
суд
мало
Миха
СССР
##роде
##чает
сель
сум
Александр
требо
фран
##нин
##жо
Воз
##ьер
прямо
##чать
участие
##сили
##тельных
##тать
убий
Поч
##выми
##няя
##нять
##ing
##казыва
##варти
##лые
рядом
##лых
##лением
двер
отказа
кро
мире
столи
заме
оборо
191
ноября
##чо
##роят
относи
##бин
сю
четвер
##шед
свер
часто
Также
Украине
пово
Владимир
##ставить
гро
треть
край
един
##вольно
вок
июня
руководи
кого
##таль
##чная
удалось
прошло
качестве
Ша
работу
##скольку
ссы
##езд
Спа
##чным
обяза
испол
##хе
вспо
задержа
отправи
спросил
##гей
##конец
##ственных
##пара
апреля
какие
##вай
млрд
реб
борь
электро
Москве
воору
этому
поку
выс
Сейчас
тон
##льзя
##вшей
##цами
##слав
##чик
##oo
современ
Только
##нный
тыс
подума
Ком
подтвер
##чая
##ставил
голову
Чи
наро
##йд
##лять
26
оно
обсу
##кви
поряд
мед
смы
РИА
таким
хва
запа
поте
чуть
##us
поддерж
причи
малень
сама
продук
##риан
##тельные
отве
огром
секре
##вок
##дцать
ТА
Федера
безопасности
##сед
##гии
сторону
агент
игро
плани
Теперь
##зм
##бург
##гом
точно
Дми
Зна
##лина
навер
ранее
права
сере
##жит
немного
##шать
##ляет
##тельного
27
минут
##шет
##смотря
##нев
##ТО
##qu
комплек
достаточно
выступа
28
##сить
кварти
оте
срав
##тной
##стом
глава
золо
мор
ходе
##ффек
городе
##кин
##чит
неболь
спра
вид
руковод
##лова
универ
журнали
неиз
должна
истории
##ерен
декабря
цер
разрабо
транспо
серьез
пси
воло
государства
##нули
всю
2016
##пози
##дали
гре
##сок
возможность
##рко
##нных
##сон
течение
дене
подоз
##лка
##лим
##джет
приходи
вдруг
Алексе
улыб
совершенно
трен
##жил
действительно
поз
прибы
##ями
каждый
передает
##нологи
##ливо
##рить
могли
##шку
##лег
губер
##сной
организации
оши
##тный
распро
семь
##ro
публи
начал
##пор
известно
терро
##дох
ото
внутрен
указа
сим
зву
анти
опас
представ
##чное
##вей
ТАСС
Дмитри
прем
##гру
угро
останови
##юз
##СК
республи
##эро
##un
дра
фон
руку
##ваются
идет
конку
повы
сохра
готов
##валась
Там
биз
особенно
##менты
ограни
##нала
##нные
разре
началь
рам
##куда
##дили
Чер
забо
##зь
40
францу
анг
##нной
пись
использу
##никами
све
Поэтому
находя
##дия
Может
вну
будто
своем
##били
расположен
начале
погиб
подчер
вет
##гам
беспо
##нув
истори
специали
##нав
холо
Дон
такого
норма
долларов
ныне
##ваю
ответил
##еме
##чески
Сергей
##ровали
##мышлен
опы
##жные
физи
друга
##мости
забы
контра
##ществ
иностран
Цен
близ
испы
трех
дней
нес
комму
широ
тан
провер
отра
##тка
пользова
##ad
одним
реали
оконча
дом
##полне
диа
словно
спу
##шений
оби
говорится
Бер
Ско
##валось
постро
партии
##вода
##гли
выз
##ологи
##рем
обу
полностью
запад
##жный
самого
населения
случай
времен
часов
информации
Тогда
немец
след
счет
внеш
Тем
ними
##нику
верси
##тные
приз
хоть
потеря
системы
встреча
##гами
давно
Ос
Совет
очере
законо
шо
непри
##риа
армии
выгля
вокруг
##лью
Украина
##надле
значит
##рил
которым
##волю
сил
стране
##лений
2013
всей
предприя
кораб
##стати
##ям
нельзя
##ion
##обре
##тили
процен
com
##леко
##первые
худо
пои
##лё
уголов
##рес
##тей
##рыв
Кор
рак
29
Ива
##бом
Восто
##шлось
the
##лению
согласи
паль
запи
##кими
говорить
Аль
##жить
##эн
принадле
предло
##рое
суб
дво
кажется
искус
большой
отношения
хра
Сто
##кура
команды
освобо
двига
большин
##хом
прак
##рина
хотел
поскольку
##нуться
кроме
впере
##гой
смерти
##ниц
станови
экспер
##and
санк
##новь
##рос
##льном
работ
##ходят
подготов
##шему
##читы
скры
##цени
очередь
оде
примен
аб
NE
##роб
рассказал
судь
##еть
Газ
составе
дальше
прош
наши
##тельным
##тился
мнению
аре
вече
эффек
тр
##WS
тай
частности
изу
ощу
кино
##телями
содержа
внимание
##ленных
##нской
допол
##лог
##гие
Ча
влия
##щим
##чай
##муще
уничто
NEWS
##фон
нашей
##зовать
NEWSru
поле
##нского
выше
##ступил
Кто
##шенко
предложи
##стями
тек
ал
Между
рамках
Еще
СМ
##фика
Фи
бюджет
обви
вполне
Почему
неда
##ig
##доров
хочу
силы
##эр
подписа
Би
полови
##коми
меньше
пят
##ВД
##ждать
период
креди
отношении
упа
##зор
##жали
теа
##ствуют
##ческая
##жением
##жного
председа
говорил
попу
##ющее
Путин
министр
##емых
несколь
сцен
##рик
##кар
##зер
вновь
Ис
протя
##дж
##мах
##стру
случи
Май
европей
количество
ап
видео
##тром
сделал
##даря
интерес
века
мета
помощи
университ
каса
Москвы
поко
##сколько
##im
##ньше
принци
##хран
невоз
капита
##лкой
ост
##II
##град
многие
степ
##лете
qu
Интер
съ
нового
##ющая
комит
неде
Сле
Бра
##веро
Бар
Тур
отсут
сколько
##рого
##рец
госпо
знал
мощ
той
федера
##пов
Фо
##la
компания
ситуации
Согла
##гер
постав
##чном
##мон
регу
раньше
работать
правительства
##начала
##тного
##ента
##вшая
имени
измени
намер
Ев
архи
ближай
сопро
##тым
Москов
перегово
вариан
поки
предлага
##емон
управления
оди
спокой
последние
добро
новый
уче
##лях
действия
##торов
##лко
превра
развития
бой
##клады
31
кам
привле
группа
настоящее
сре
конца
##дитель
##цем
##форми
##енси
Глав
##эй
##помним
солда
хозяй
умер
##они
прид
прежде
думаю
присут
нему
##дки
финансо
ум
##чено
желез
##шает
пес
The
обнаружи
считает
Дже
район
##юза
ата
уверен
Или
зло
##телям
##НР
##бов
свидет
##луй
##мень
турни
осно
##сона
Европы
кило
туда
захва
Жи
лица
нуж
постра
##дина
##тник
российских
уме
##льную
первой
##ственные
##мено
##ch
##все
понял
француз
##руется
##дий
маль
вста
##чную
сильно
бло
проте
озна
легко
реки
выда
##тельное
СМИ
взгляд
сна
##вили
вза
ква
##ссажи
парла
ужа
демо
сокра
самых
##руют
Напомним
Каза
##лимпи
составляет
существо
видел
опубли
##бере
мной
сом
могла
2012
сообщили
##зывать
жерт
##нили
совме
фрон
рели
##сер
первых
##втра
самое
технологи
службы
##жений
##нулись
##ent
каждо
##нке
##шить
решил
пропа
##ленные
бога
выи
одну
##лье
ОО
##лад
кня
новые
боя
требу
Пар
##нки
Север
##сят
имя
мага
сро
опять
Лени
тради
слыша
пишет
такая
довольно
дверь
##сам
пути
##мар
##жала
##лот
связа
##мые
##ментов
Хотя
найти
##ква
мере
##лам
##ехал
следует
плохо
иска
2010
##гры
новых
помощью
игры
##зей
##ведение
полно
##нюю
ще
##вшим
поро
Конечно
##мых
##бил
##рту
пой
##каде
наконец
прод
воск
план
##прочем
Исто
произошло
##более
осуществ
##мира
годах
голос
самой
Ген
##ir
поддержи
##нение
##матиче
НА
первого
сня
quot
сборной
##доб
##рование
зе
##лосо
наших
##ваясь
##дами
##шта
знает
заседа
практически
ого
головой
##шению
впервые
чемпионата
Васи
прово
##рез
##фици
##нного
ид
средства
##нему
посте
Мини
празд
Германии
##рус
##пании
##чек
##ременно
очеред
Поль
возник
станет
Кри
поста
привы
##вить
пяти
прос
##жде
сай
##раи
жителей
некоторые
гер
своими
Этот
объяс
##сю
канди
Потом
##сами
медици
крас
Чу
##нский
реко
Дру
кандида
##принима
зам
Даже
объяви
##ат
##рый
пришлось
пригла
проблемы
скорее
наш
происходит
##печат
Франции
воды
мас
отправ
разо
##ходить
мето
##мотри
члено
Вто
ведом
Донец
##дор
##никам
мона
##сторо
магази
одном
миллионов
роль
Хоро
фигу
изобра
наблюда
хочет
решения
дав
правда
##дко
##дите
нена
институ
многих
##дах
##ra
Сего
пассажи
Донба
глубо
##скоре
команди
военно
##лле
##вича
##гах
анали
60
примерно
геро
аэро
##ченко
премьер
##нется
##мана
##клад
##тья
##шил
спор
Сегодня
##ew
низ
зави
замести
##сур
##цам
##зем
войска
клю
##дан
пост
Президен
матча
самым
тю
ката
##лах
##пар
##стях
деятельности
арми
помощь
движения
напря
возмо
##мый
выпу
##тит
ль
##ун
дли
знако
самый
професси
2011
##ленный
Пока
##лер
инф
##два
ЕС
##гна
##бора
тело
оцен
объясни
35
дел
ана
##ческое
##пить
улице
моей
вышел
состави
бума
силу
парт
Есть
губерна
важно
сайте
полиции
##ственным
техниче
##ванием
дальней
краси
обычно
женщина
средств
##сибо
##гать
диви
пользу
связан
##вов
являются
Гор
##вью
догово
секу
##дам
меха
денег
Гре
##зил
##дает
гос
##лая
##креп
трав
проб
##дения
Москва
##роприя
##чета
##чень
лично
##няет
уси
##гно
добавил
##раба
независи
вместо
посо
чита
##тики
вероят
будем
Андрей
говорят
##емый
##чением
##слов
нескольких
возможности
созна
речь
##менти
Зем
##чении
получить
мои
##сах
форма
of
бар
##ческим
приобре
радио
Ал
##тию
исче
выну
Ru
другими
##жным
доказа
##лить
##ленной
##емся
##чера
система
##ственное
##ur
отец
вопросы
##щему
литера
Фа
##лети
оцени
корре
матче
обеща
##боро
##ровки
сих
утвержда
функ
начали
##грал
прибли
мужчи
##питан
ошиб
сюда
бом
##низ
##навли
##езда
никаких
Иго
##лым
струк
##жешь
ссылкой
прожи
Поро
Эти
спорт
##мей
длин
##тивно
удиви
оказался
Гри
слово
стара
неизвест
семей
Согласно
главы
Здесь
сне
простран
Вол
возбу
##наче
##думы
правитель
стоимо
тео
##бло
повто
нач
миллиар
англий
вроде
нали
##тельная
серд
невозможно
##служи
сторон
коллек
мероприя
##мир
##мор
замеча
Прав
годов
состо
массо
##емой
Россию
промышлен
Российской
##тива
меч
##бран
##цер
суде
сообщалось
дево
##пан
##шек
разве
##солю
жить
ску
##рева
опро
##гар
##мым
свобод
##емые
понять
##тисти
##чке
древ
Ор
##мин
##ходил
следова
метров
Дмитрий
мысли
коммента
##ia
устро
работе
##порт
Гра
Амери
представитель
разу
полицей
клуба
психо
нынеш
ини
чинов
разру
гости
получили
Хар
услу
рассматри
моя
##вайте
##няется
предполага
расши
Сирии
Санкт
Федерации
цвет
состоянии
190
##ционной
стату
##ляется
несмотря
гля
шу
##писы
другим
70
Республи
##спек
Ведь
можете
ответствен
##интере
##дент
пото
уточ
##сад
служба
корот
экспе
мужчина
##дев
##фак
Ана
попыта
весьма
вперед
нрави
##чали
Ги
ребен
москов
##год
##тания
зрения
##новременно
##меть
##тябре
##ace
приводи
водо
ситуация
##зить
позд
кризи
утра
расследова
типа
раза
##пен
направи
револю
горя
секрета
##кри
некоторых
2009
##чается
##дри
работает
Порошенко
##оз
##поли
Пра
бле
выбра
2008
доступ
##числен
проект
##нике
российского
колле
суда
Один
##кса
ноги
новой
сложно
километ
##тиви
уз
внутри
эле
доби
профессиона
пенси
иногда
##чили
##шой
отда
поэ
##сля
фотографи
любой
возгла
##гло
##кли
##туру
радо
зво
Оте
условиях
другу
центре
Джо
охра
##страи
45
соба
посла
террори
Бело
зу
##вшийся
цели
услыша
Нью
действий
женщины
первую
держа
благодаря
сот
далеко
неожида
кому
название
здоров
##тила
посвя
женщин
центр
Слу
воспо
месяцев
ресур
Затем
кив
восста
проблема
разных
попроси
Красно
образ
вспомни
##туре
моз
Ад
наиболее
постоянно
Рас
уровне
Центра
дополнитель
##ую
захо
##пет
доме
гри
заметил
Свя
первом
##гро
май
бизнес
особо
##тика
##чий
полага
безу
охо
Через
##ческую
##лку
север
Алексей
работал
##титься
##чала
##ностей
веду
##тое
конфлик
##ент
предупре
##шёл
домой
придется
##веща
девя
пару
90
ев
##гут
##зья
##жает
Запад
обороны
какое
знать
##мую
данные
статисти
##город
##тором
##шке
китай
ран
сможет
##спон
дороги
##чности
##ющими
путь
##вил
какая
ряд
завтра
Джон
глаз
выход
##ссия
информацию
Ши
соответству
поверх
запо
клуб
имеют
кори
болез
Коро
Ира
Велико
военных
установи
In
запла
Ман
едва
воро
множе
##бить
машины
Госпо
высоко
Им
корпу
награ
увидел
##мая
российской
##чика
##ссы
пору
покупа
тысячи
##бар
##лон
ори
последний
насто
линии
##тона
Джей
реак
встречи
##рыва
почу
число
британ
##рачи
настро
торго
##гает
неве
команду
##чих
##тали
столь
##кнов
законода
сет
понимаю
популяр
ат
##гия
Пол
шесть
##чник
##бурге
най
##писи
товари
каким
Зо
##гал
поводу
ока
обстоя
абсолю
яв
реда
Гос
##os
казалось
##фри
яр
Бори
аппара
##тивных
остро
##дила
основном
##ственная
##фу
шан
Серге
использовать
in
Рус
Ху
##интересо
обраща
##ера
торгов
министра
став
коле
##стров
валю
Сте
правительство
##ook
##чами
эпи
Верхов
Пари
напомина
описа
##анта
попро
Их
карь
МВД
избира
зачем
кров
поясни
##гото
земли
форми
мать
Фон
##жели
##чиво
##джи
##ut
##тное
свидетель
##тую
##сток
##щиков
холод
80
события
вынужден
перево
тихо
юри
##рованы
проекта
##мое
ува
демон
Среди
союз
покры
##треб
демокра
##тку
##ници
хотелось
молоды
программы
Тре
мер
re
замо
Таким
##ВА
St
удар
##ссу
Впрочем
##бурга
разде
##ходили
первым
боеви
ru
втор
транспорт
Анг
##дешь
Сам
Гар
точки
##ow
бело
макси
Киев
конкре
##ov
##стана
руках
принял
мг
##ссий
пала
Правда
лиц
##ционных
##тке
##кому
своему
##шением
итоге
возвраща
##ИД
##вела
прият
становится
##ag
присо
##жки
есте
столько
##чешь
гря
Чем
микро
Эта
обязан
поддержа
##20
##лови
##говари
##жная
##тите
##нял
##раздо
дети
твор
##стам
опублико
##ниципа
середи
##ционного
десять
пересе
Мен
переста
целом
##ствовала
исчез
кате
любов
сф
операции
см
сначала
##стить
##бка
страте
характер
степени
##нина
автома
##парта
удоб
##стья
которому
Ше
положи
инициа
##образ
Потому
##вшихся
проблем
##нная
##пру
пом
##обе
##стами
недоста
##лил
всему
выступ
нашего
рав
другом
##вут
никак
целью
##меня
инте
взял
##поль
нака
##тная
отца
##рудова
Именно
взаимо
обвин
##зывал
директор
Япо
моря
Просто
##дцати
##емого
почув
подчеркнул
##фы
##чными
##ствовали
##мос
Лон
интервью
путе
конферен
практи
принять
##лён
##чился
ау
ца
##рица
устрой
тела
Президент
II
Мэ
море
##iv
##ющую
##тает
Чтобы
уровня
написал
##леты
цар
проз
##зация
Оба
конкур
##чена
Евг
войск
Национа
службе
иначе
сотрудниче
комитета
наказа
позволя
поля
ниже
сердце
прошлом
добы
##ствием
##дился
поднима
нарко
##дим
##тным
##дон
##ставили
##чиков
тен
Мед
отре
непре
Андре
распростран
##шими
Хорошо
согласно
карти
мировой
странице
##тек
играть
##тивный
худож
вовсе
каких
подроб
##ниях
сосед
##ческом
зад
##пно
людя
##довал
трудно
##льт
власть
сын
штра
гар
2007
Где
##вии
команда
музыка
импера
скло
##циях
весе
Надо
виду
гром
Пав
час
слуша
пусть
студен
##нда
вернулся
настолько
вещи
пого
учре
##лимпий
##рет
Крым
##разу
стен
игру
Великобри
Кла
культуры
сда
солн
удив
подс
гораздо
касается
порядке
##зия
##рение
тепло
пове
смог
превы
сообщении
страш
##чению
общем
школы
видимо
выде
симво
500
самые
рукой
иметь
общества
##чался
Совета
оружия
Гру
##тивной
Тут
еже
рей
##прос
##доль
суме
тобой
36
ООН
появля
##тельности
перво
арен
Мари
##пел
##пой
##вока
Поли
срок
дать
##нное
нами
това
##мит
выясни
летний
главный
##гну
##жены
впечат
Ст
Дума
##дыду
##нией
компью
откуда
##пил
катего
мгнов
##мимо
политики
поне
##ходы
данный
церков
остав
муниципа
провести
##ана
глазами
выпла
изо
Государ
помочь
вести
двор
предвари
##лив
образования
уро
позже
взять
некото
генерал
разгово
мыс
300
силь
##ится
##нта
##дыха
боро
администрации
акаде
##em
##тыми
оппози
Вме
раст
месяца
дни
КП
##това
##шев
исти
##um
девушка
32
идти
for
сек
футболи
##тесь
дал
десяти
производи
##оте
совета
первые
уровень
##ёх
распоря
препо
Шу
двери
##щик
##пустил
спраши
##пки
оружие
земле
Сем
одновременно
вечером
##лец
##нению
рода
экспо
##зин
##защи
Путина
прошлого
гео
Ай
Интерфак
Европе
мили
производства
имел
брат
##луч
документа
республики
Возможно
##жется
телека
##кали
посмотреть
находятся
потер
инвести
##бок
##джа
Аб
##диви
представители
##ec
НАТО
сопер
##ні
марш
ua
видно
наверное
Ее
обнару
оба
##ковой
спец
моего
позиции
189
дипло
##вит
жало
разно
автор
цвета
смерть
##пания
##чила
печа
фильм
учены
спорта
другого
Мор
##лож
##мера
##кер
пожалуй
процесс
обстре
##ht
оборудова
театра
##стной
##дио
Бан
семьи
Например
##кров
месяц
мяг
Международ
большинство
домаш
государство
##ровала
различных
000
##мого
##зывали
теку
оказалось
голосо
##гни
часа
Александра
##ченных
подвер
иностранных
##кор
профессо
думал
заво
оказыва
##женных
##ждении
лей
включая
Оста
##катери
Очень
ребя
версии
каждого
##гран
##пя
делу
вами
пти
##гляды
##ходов
##ay
Ио
##скор
рекла
учеб
двумя
##сила
преи
##споко
матч
Констан
##довать
##нился
знаешь
Пла
тренер
##пись
вечер
##мены
одино
Ленин
Кэ
честь
##ой
Нор
друзья
стоял
считают
заболе
##проек
провин
2006
Бри
ракет
япо
явно
недели
and
##довлет
Мон
##хар
подраз
##АО
полез
лидер
##жела
##нос
смот
##тельную
утром
##гети
действу
медленно
опа
форму
##сторон
данных
##кипа
персона
##тились
##форм
момента
Рабо
роли
2000
##чики
##oc
##тальян
филосо
министер
##нным
Стра
##ехали
##гая
МО
Михаил
подумал
##бир
труд
никакого
духов
ситуацию
##тала
прокура
Израи
##телю
резко
развед
##знакоми
Макси
агре
##вшиеся
руками
ими
##нера
Джа
Уже
приро
внимания
исполн
станции
располага
##сред
##пора
воздуш
таком
существует
солдат
сче
вчера
##оны
33
мужчин
дро
факт
##льд
##летов
Ах
претен
площади
##od
незакон
порт
важ
погибли
Дэ
##ce
##нан
делает
ВВ
##мани
##ri
##ющем
заку
спросила
##ющихся
##ционный
интернет
членов
отдела
наме
пет
темпера
Николай
предыду
плен
##тации
##пле
##тании
напад
предпринима
креп
##щать
##пустить
##нуне
следующий
корреспон
##охра
Мер
##ётся
2017
площадь
посмотрел
бед
область
Три
##ехать
Первый
яко
церкви
##лота
итогам
можем
постанов
красо
##способ
возле
ген
пон
заверши
поступи
##казал
слы
деятельность
##ционные
крупней
заявля
вторы
##мость
круг
##мум
##нести
книги
восстанов
##шкой
изменения
Кали
темно
газа
зарабо
язык
экономики
сопрово
схва
##тивного
голу
автобу
косми
##эль
другое
ава
сети
##АР
регуляр
оказались
движение
##сный
спокойно
сча
##вании
Доб
Ваши
##стые
##ревнова
##тим
##льными
##кру
сыгра
видеть
тури
избе
##лерий
##нила
неделю
относительно
СК
##лке
Россией
##нувшись
##енье
подъ
проведения
##кля
##чительно
Екатери
выво
объяв
группи
##book
зар
юго
пострада
список
##стры
религи
##ів
событий
такую
##дови
##жено
##сыпа
российский
нер
основе
Можно
мнение
##пят
##зирован
##луа
ребенка
ядер
берегу
Рей
похоже
досто
Второй
случилось
увеличи
восем
землю
лоша
компаний
прось
гг
конструк
спосо
доб
Ак
зер
Министер
##шься
стреми
спаса
приводит
34
трени
газо
поза
реша
Ска
решили
##ленного
Кие
аресто
банков
##сия
Петербург
##ристиан
Йор
Всего
Ему
##th
##рика
##енных
ненави
недавно
снима
##нович
##кос
Ита
отвер
##вшую
МИД
##мея
слов
опо
##чества
реа
ранен
инстру
##acebook
хок
сегодняш
сезона
разные
##циями
##бель
прогно
##жению
вице
мастер
импе
ночью
Мат
получила
маршру
##преде
тяжело
причина
остается
##лую
огонь
участников
##стива
логи
##ess
XV
##чется
раскры
##обо
заре
вскоре
вниз
меры
##гали
##жь
##ation
принято
фир
телефон
отмечает
##одо
удоволь
прежнему
знамени
##зит
положение
всеми
рост
класси
ясно
##долго
процентов
цены
вздох
народа
определи
##тье
##возь
рейти
история
##тивные
##сторожно
Игорь
артил
путеше
##суль
Побе
главное
зависи
Фото
##ссив
член
Сла
брига
Спасибо
послу
Иван
##тилась
Прави
##чия
молча
прис
стандар
##ятся
кем
предложил
порядка
Facebook
зака
двое
мм
облада
обратно
Полу
##ницей
назначен
пришел
##дже
северо
##дум
осталось
времена
предприятия
##вшегося
жест
второго
четырех
источник
##бами
##тельность
концов
здания
##логии
опла
порта
смотреть
объедин
непро
to
людям
помни
управля
мое
патри
историю
##дение
культур
##сл
Фор
посети
Ир
##рабаты
зато
орден
поезд
гаран
номер
циф
расстоя
какую
верх
##нге
##тника
##цом
метро
зара
предмет
Спарта
преимуще
жена
военной
##ними
сотрудников
##кал
отстав
##видно
судеб
шаг
##ложить
##ланд
сообщила
##енный
Дей
стороне
счаст
кафе
Наде
Зени
##сного
рынке
##енные
##дка
нравится
##чё
мерт
Медве
представителей
ДНР
Дан
Вам
находился
появ
прио
сына
глазах
Ничего
##ровано
проведен
Дина
победу
спортс
университета
##щена
зи
заявила
серии
Оль
родствен
итальян
##ссоциа
рекомен
Несмотря
##эм
рассчиты
##брь
##плы
удовлет
##АН
##ченные
правоохра
Эр
инжен
оз
##тической
конкурен
брать
жда
##кает
Неко
##енти
пережи
##верить
преступления
##меется
увидеть
обсужда
соответствии
твер
Ура
зарпла
Джи
Ры
спас
##сна
зри
сцена
##ворю
боле
соревнова
Исла
##чкой
##порта
меж
Глава
временем
экипа
##ваны
##шина
условия
##евич
агентство
финанси
готовы
Еди
тюрь
##тную
семье
плю
голове
сожал
выборов
##вец
Благо
##риаль
Вен
##щены
мимо
##зий
##бина
##лями
выстав
полков
имуще
188
##женный
противника
Ря
самостоя
маги
##зывают
Тор
ибо
Источник
Жу
Значит
органов
произнес
умень
хле
последнее
жили
сму
спустя
Послед
##вому
Петербурге
фильма
##ходе
незна
##тащи
##гули
Более
упомина
выборах
пры
Тер
Вар
оправ
Основ
##шко
секун
ука
хотят
Нам
непосред
разда
##чим
отря
прото
##стных
позволяет
знаете
##гина
края
##бю
##ешься
бизне
заявление
приве
##ждений
запу
##стям
Кур
хочешь
адвока
Владимира
##тием
лице
война
дороге
Китай
##няка
##вана
вышла
##нит
Соб
Луган
##чев
потреб
назвал
Re
какого
2005
##тик
учени
38
монасты
Петербурга
говорили
энергети
##ваний
кварта
##россий
Эй
мысль
содержи
##тков
воду
правильно
состояние
##гий
начало
Навер
дис
отрица
Али
##мас
##ul
##щества
крови
машину
##нских
##кта
Роб
##__
скон
буква
##дем
кое
грузо
поступа
поддержку
дочь
Ке
##лега
##няют
востоке
чере
зас
странах
успел
##ваем
##дьми
вижу
кивнул
большие
чрез
сезоне
обеспечи
вось
ору
##стье
вернуться
млад
##ждён
пройдет
распростра
преда
провел
оказалась
шести
##носи
зве
Кстати
Тот
могло
далее
большая
чемпионате
##бий
крайней
стары
Луч
##бера
скан
##стного
##ющиеся
##гор
фами
Вашинг
##куро
##ложил
##щается
##тников
##стю
##ard
небе
активи
37
возника
абсолютно
Дол
понедель
войне
бывший
##пенно
##ложение
чисто
создать
ввер
главным
лета
горе
##сные
мужчины
##зен
паро
моему
поря
улуч
##сных
##av
Моло
частью
##писко
добра
экспери
##говорил
##щал
внеза
##ляли
##СКА
Петро
комнату
##роваться
сайт
бывает
новости
причем
окружа
гло
##нодоро
##мат
Одна
вод
нашли
186
чему
еха
Даль
бур
потен
кора
##енок
##щими
председатель
##ьми
главе
##шили
бол
Хи
##щер
Неу
секретарь
максима
округа
##цкий
ладо
брон
понрави
остался
Меня
##жая
проходит
##мия
воскрес
потребо
выстре
свободы
рассмот
Ника
доба
супру
Жен
хол
##ктором
насколько
##рована
последова
##вшее
##послед
бор
газета
##щики
наше
75
приходится
##сей
человеком
разговор
понятно
развитие
##тирует
ву
техники
Сов
масшта
##лян
баталь
направлении
ам
##ходила
Фили
напомни
##последствии
форме
акции
Без
ведомства
сожалению
говорю
информация
##тельств
фра
##ight
сравнению
конференции
цена
молоде
голов
2004
думать
миллиона
переговоры
##нале
Союза
выборы
неприят
##тило
хуже
##тря
выпуска
##бые
банка
многочислен
##вето
разби
якобы
исследования
##ремя
ез
Тру
##дный
Республики
обязательно
пытался
головы
остальные
##кет
##ъек
##op
музе
##пал
##ляют
XI
стены
Крыма
Же
результат
сделали
села
##вшейся
выступи
##жат
усили
закончи
испыты
Th
##бели
Москву
появилась
хло
##сё
##wit
российские
появился
води
##груз
##ческими
развер
бит
##тических
##ьев
немед
смотрел
общей
систему
##тории
187
систем
теря
людьми
редко
нема
должность
##бви
строительство
##стую
##лло
сх
##менте
##брать
необы
##ус
##начально
кстати
втором
##сюда
восемь
новую
большое
контроли
заместитель
смысле
Ники
сотрудники
##ванию
середине
Казах
жители
Украин
стади
узнать
коль
55
пошел
труда
национальной
требования
##ложения
первое
##оборот
санкции
родился
##кнула
завое
отличие
курс
необходимости
##ьи
мате
##зой
среду
Рос
Кана
пришли
Дело
##клон
пожи
##кать
молодой
заявили
напада
напро
##шал
военного
местных
##стая
##мену
##мол
острова
возрасте
выйти
##all
письмо
главного
##ці
##ально
закона
строительства
военные
##фер
##ченный
мра
здоро
памяти
очередной
нефти
##ждено
##ід
прекрасно
множество
шел
особен
##ap
организова
##стаи
крайне
домов
кара
регионе
шах
активно
##ковых
священ
стоимость
создания
Свет
мони
борьбе
библи
эмо
означает
кан
Смо
дает
каз
##брал
вариант
космо
Фин
присоеди
Великобритании
опыт
выбор
интересно
страну
##менить
сумму
##ie
украинских
представляет
комиссии
жел
##рованных
роста
##надцать
##ково
##нку
лест
Дени
##чественной
чтоб
##мс
конфликта
##рной
##зать
защиты
стратеги
уголовное
большую
##ногие
##диться
Кан
наша
##тического
религиоз
боевых
ЦСКА
глуби
аналоги
##горе
борьбы
подру
##ЧС
##witter
крова
Виктор
депутат
хотела
##лай
##циони
продолжал
нефть
электри
агентства
##чок
##und
оставля
войну
Сред
##твор
дорогу
осве
окку
заинтересо
искать
улицы
##ik
значительно
чаще
публика
службу
рынка
ваш
сложи
##ните
Хри
опол
контракт
повре
##шены
Геор
Ната
##жном
##лиза
препода
которыми
ликви
лиш
Зачем
никого
приняли
##ина
жесто
Интерфакс
##ub
результаты
неодно
суббо
теме
неуда
Европей
##ьте
##плуа
##пах
##вка
трево
смогли
своё
ответила
рука
##стых
Зе
##лне
##чество
th
##зяй
моих
неё
##ers
Динамо
железнодоро
любви
носи
названием
##нтов
двадцать
Крем
капитан
конец
протяжении
Шта
самолета
##кала
верто
продолжи
##вос
фоне
выро
##шено
партия
##чёт
границы
##лыми
##стные
предложение
правило
тонн
##ллю
владель
##гин
отношений
нужен
Олег
планет
компози
##хождения
топли
##рена
##ционе
предна
резер
происше
эпо
ИГ
понедельник
##est
##жащих
##ляции
государственного
предостав
##спекти
новое
##АС
королев
выдви
работают
поса
##няли
команд
достав
Сы
языке
входит
рождения
укреп
каби
подчи
лагер
командова
Том
Еги
##лял
числа
##щает
одному
##дне
ждать
некоторое
сос
Джу
##женные
размер
взрыв
броси
Бли
знала
##ссер
звез
вез
##щено
заслу
мою
Оде
писал
##ходило
небо
винов
отка
школе
##нуло
минуту
Бен
сопротив
огня
##кции
счетом
##ственную
##рово
##гистри
последних
пятницу
парламента
42
##езде
Тро
##ровка
##кратно
##даль
##такте
Ch
класса
ниж
вру
смогут
попал
представить
чувству
света
большим
художе
противопо
документы
село
##льской
титу
мэ
офице
дога
##мати
справед
собе
##пку
дож
сквозь
сор
Генера
коммуни
сфере
Думаю
вслед
руководство
значение
христиан
сообщается
Великой
65
сва
фанта
крити
неожиданно
##ляться
слабо
считать
выска
1941
эфи
лиде
##КО
##ственном
пошли
начать
##стрее
##ort
молодо
##спи
похи
##рай
несо
начальник
2018
прикры
##редо
предела
осозна
2001
##еремо
страна
лейтен
декабре
нужны
##ews
алкого
##роз
##стка
террористи
каждой
##нятно
появились
##вшими
кух
чувство
зай
шту
##торые
##ант
1990
записа
обозна
самоу
##РО
##йтесь
машина
##руя
катастро
участия
русских
языка
нашел
торже
руководством
издание
россиян
##льзова
хочется
территорию
##хло
семья
##чув
плат
волосы
48
пак
сентябре
##цах
состоит
##ис
Донбассе
наступ
вспомина
##вершен
Два
души
департа
Тай
пояснил
##жите
##льник
150
мел
причин
ред
##ом
ночи
Фер
##стера
крепо
деревня
клиен
поговори
##жку
организаций
адрес
законопроек
соблю
Наконец
##рила
##жён
возму
нарушения
##вол
голова
россия
карто
январе
Спе
##жан
Пусть
Ок
тему
сты
прием
оке
Ислам
прошел
##строи
внес
привет
жив
вероятно
вопросов
истре
довер
Нем
Газпро
Рай
##сро
##щений
Юрий
одо
##фикации
память
##ak
сообщения
воздух
##rue
местах
##несла
Лондо
выигра
посту
постепенно
##циям
##ленная
правоохранитель
##дятся
##дания
##льского
остались
##тники
Народ
военнослу
кле
фестива
партий
вышли
##чают
Авто
эксплуа
отказался
буты
бюджета
экра
вверх
мама
государственной
жени
концер
разы
испу
любовь
моби
Эн
Ат
##бых
штур
третий
бассе
заниматься
##юр
цель
2002
Кре
баш
##енью
общего
тяж
##лился
Вален
##тивы
ров
##тельном
Кара
Кли
##емая
размере
44
##лили
значения
##гнул
последу
39
победы
гвар
смысл
нужна
Перед
пропаган
корпора
МЧС
начинает
бывшего
##нную
Фу
напи
применя
лицом
##ненно
пласти
случаях
##жом
никакой
##чений
желание
##мут
##люб
полной
лен
госпита
юриди
инци
писто
прика
договори
невы
контроль
400
камер
обслужи
дя
##леп
сидел
сказали
вторник
произошел
переме
существу
коммер
одер
ресто
взглядом
статьи
43
41
трудо
должности
помню
встрече
улыбнулся
роман
##Рѕ
рук
минимум
Похо
Украину
находились
Джор
налого
приста
##кторов
чувства
четверг
комнате
завод
президентом
заму
##сная
производство
здание
видов
ван
обер
##пок
километров
Газета
банк
##щины
можешь
рубля
##жают
официальный
специально
##зоб
транс
порядок
вряд
рынок
зал
бесе
свете
отдел
прошли
здра
клавиа
##кина
вспы
слышал
предназна
словами
социальных
победи
##гка
Мария
сохран
каком
##берг
##ИН
санкций
##щён
##эт
##цеп
##жин
ref
марте
##мотреть
материалы
разговари
деше
Италии
##щаться
доктор
наук
вашей
эффектив
Челове
XX
Фонтан
характери
##чало
сирий
##гон
директора
озе
отношение
сма
самолет
связь
сведения
##действия
исключительно
готови
##зили
употреб
##туаль
##ula
Люди
официально
руководитель
другую
Было
##ждает
эко
##зал
беспла
обстанов
true
слегка
Евросо
обре
Григо
мероприятия
соглашения
##жную
режим
небольшой
видели
системе
Разве
Белору
пона
первая
хотели
знают
статье
вопросам
МОСК
##вав
библиоте
оскор
фору
##ету
##фикси
##ёз
Кер
возглавля
##скать
подразде
открыл
##ань
непло
ног
##льному
индиви
придума
СП
##вычай
модели
визи
ГУ
##нга
##ьет
корруп
имели
паци
##ленным
##стьян
продви
глядя
подозрева
учиты
##щина
государств
##стый
##читься
##хозяй
пусты
команде
устраи
пройти
Пожа
процеду
такими
группе
занимает
кровь
опусти
##хии
##лера
##цар
беско
наси
##кл
Некоторые
##ХЛ
185
био
##тяги
##чнее
сериа
учё
##кей
широко
обстоятельства
##ждая
машин
корабль
похожи
найден
хотите
##сел
фла
состава
мило
46
##раясь
МОСКВА
минуты
##етесь
игре
избран
Экс
объеди
##рги
Кам
успоко
##ведении
Объ
тка
предъ
сомне
Ладно
инфра
животных
предстоя
автомобиль
зарегистри
ведет
##туда
##ФА
отчет
принимать
##нями
##мию
выбира
мае
усме
разум
Эд
##ваку
арти
атмос
вдоль
2003
собесед
##рили
рот
##ТП
##жена
he
Син
полномо
Филип
ассоциа
пообе
отдыха
вступи
режима
##ставила
Киеве
груди
гумани
##льский
парень
прове
знаком
мора
создание
называется
##pp
##ниться
подви
население
пребы
УК
##лайн
подряд
##our
трёх
приходилось
##товой
земля
##барди
##ИК
состоится
перспекти
штраф
Анто
поднял
##сив
##енной
относится
##рэ
перес
вое
осторожно
крупных
делают
Многие
##тех
зависимости
Англии
юно
Был
счастли
парламент
РС
альбо
form
##art
влияние
Вместе
броса
немедленно
телеви
Бог
##вки
шла
##ал
возраста
проявля
##хой
Воро
Ци
деревя
##ехала
Кей
##жало
##кур
решила
##ющийся
##рией
##сках
выхода
##ab
Ино
терак
турец
Интере
##СЕ
Кубка
достиг
зафикси
успеш
сдел
психи
##ЭС
стола
Никто
Яро
противоре
справи
ВК
Бела
бежен
предложения
наслед
Эль
##бан
переговоров
политической
труб
Турции
игр
гарни
угодно
прогре
повторя
Московской
семи
днем
графи
##благо
ключе
очевид
настоящий
Петр
ближе
окна
знали
Особ
##щению
сельского
Спи
копи
самая
фронта
##тном
рубе
собственной
хими
мело
разбира
##изво
##чив
противостоя
фактически
нашу
зали
убийства
Зи
едино
##тические
короля
улыба
наоборот
поздно
##зон
дета
газеты
Евгений
продукции
апреле
будущем
объектов
##фов
розы
накануне
Бал
зале
##нений
##ссию
##гани
An
День
##дует
Sp
ски
##гают
Павел
##комменти
ряда
кно
хво
чемпион
47
моно
##спорт
серви
августе
##рите
герцо
Афри
1999
ваши
велико
бабу
Анато
депутатов
погибших
##гора
поддержки
##ula_
##стром
заставля
вен
доче
городской
##щением
вете
лес
##реи
Оп
##жка
Уи
##ферен
коне
##тят
formula_
##чне
зависит
##зора
жил
возоб
соответственно
летом
армия
49
##никах
никому
заседании
##печа
клад
властей
камен
объявил
Иль
профи
##зацию
Отечественной
Лит
##логов
опу
воин
##бороны
##щихся
согласился
##сант
трудом
##БУ
##нят
члена
приез
приблизи
прошла
эпизо
Ль
губернатора
скорость
выдели
ущер
Коман
Японии
картин
Вене
Сначала
ума
##лел
материалами
называют
##станции
согласо
##вере
русского
##ново
чрезвычай
отказыва
дали
рассу
Сколько
показал
школу
цело
##ьера
продолжает
пришла
украинской
##if
спро
вои
телефо
ребенок
##влека
##мене
зао
идут
леген
скажу
##ЕН
пожар
прокомменти
нега
автомобилей
Бога
въ
##дры
русский
формы
получается
##лога
цитирует
##III
управление
##дая
нечто
##десят
дыха
##мся
##канчи
##стреми
##пры
Поз
направления
##редото
Кажды
##бая
человеку
шут
столицы
##лева
##доби
сей
пишу
перене
прокуро
##пля
Само
обли
##тельными
бесс
перено
Коло
зару
Михай
Goo
отмечается
яви
одинако
председателя
окончания
##бах
ответственность
кана
пау
заби
красно
Наверное
предусмот
##фициаль
начи
Голо
##тало
наверняка
##возгла
Анна
твой
спря
узнал
##люби
американских
площад
##ber
сообра
##нились
##щика
64
любом
талан
откров
##gle
##СР
##щество
октябре
##хнул
пехо
##йдут
остальных
##стоит
52
##мян
церемо
##рка
люблю
##рье
##тана
устанавли
новым
подозре
индивиду
спек
реализации
##ail
феврале
упал
стрель
девушки
нужда
мяч
1945
переи
друзей
путем
Американ
Мой
имен
песни
сутки
отсюда
числен
владе
сотни
##гром
шоу
##ило
окончательно
искусства
Вой
поможет
мужи
##енко
очевидно
привести
##зами
пожалуйста
сезон
автомобиля
вес
Представи
Бор
подошел
достой
##летел
сбо
инфраструк
##комо
диск
городов
лидера
##оном
обратился
отсутствие
отлича
факту
стояла
турнира
выру
соедин
уйти
буквально
предус
51
Трам
##чность
исте
корабля
составил
ответственности
Гон
акт
Лат
##вига
##ниями
империи
сел
Оно
лекар
поняла
лиги
внимательно
##дится
плечами
базе
Каждый
заявления
##ствий
эваку
процесса
пья
лучших
футболу
живет
##бую
воспомина
##май
сути
сформи
##og
консу
силой
раздра
Муж
##декс
образование
опубликован
сильнее
костю
воскресенье
##мма
программ
крае
##дию
##ъя
водитель
Ниж
винова
внутренних
группу
##сан
##ордина
гей
быстрее
использования
Китая
основной
##вшем
неделе
##поле
Сло
вида
заве
gt
прошед
Лин
##льм
##энер
След
субъек
##one
трое
Пло
##тябрь
новая
Испании
роз
##монт
начальника
Донецкой
ворота
рабочих
1944
##ill
водой
##ist
останов
##обла
международных
##гнал
столкнов
причиной
##ant
##ментом
ближайшее
Бол
восстанови
##дной
органы
пассажиров
компьютер
Лен
Кита
спиной
ДТП
экономического
##кут
модель
##ходу
видела
рим
##руются
кабин
серьезно
Маль
Помимо
##довой
##зок
##йдем
строй
##ведений
восклик
гим
вторых
болель
идея
##льности
украинского
голосом
началась
Це
шли
##ine
завода
опти
Встре
соору
сделала
внезапно
##пиона
подгото
квадра
##нья
учили
Ян
охва
примеру
##рованный
купить
задума
##дание
##чко
изви
##стым
последнего
##новения
июне
поверхности
душе
документов
разобра
уте
блоки
миру
Шар
##ставив
##чом
селе
задача
зоне
упра
Олимпий
сколь
Золо
##ВО
##шит
хро
##шается
ноябре
кг
издания
вошли
вода
акций
##вена
борту
##стане
Вскоре
ОБ
##вёл
Всё
Дар
субботу
Мино
случайно
Генри
общество
##тни
супер
куп
180
провели
попросил
вед
совеща
отношению
Чита
уво
стаби
клет
огля
усилия
##зировать
Сергея
удосто
соли
пунктов
##влек
уре
преде
##байд
адре
##весто
самому
потреби
фер
##пали
этими
поступ
##зывая
июле
##дают
православ
##вами
эн
подели
фаши
обвинения
очи
др
##вла
##зербайд
##леку
##сор
##льше
ждет
столице
воспользова
мужа
Жа
различные
##образова
##ллек
##шись
данном
##стал
заба
##зовал
столе
неоднократно
##змом
хватает
##ветов
мистер
##луб
рассе
очков
старо
##пили
##сии
организация
плане
##несли
знаем
##формы
сосредото
09
проше
голоса
впоследствии
##годно
##слуша
##жное
##ликт
любого
##ллер
часы
истреби
политических
ушел
##суаль
III
брата
##йся
члены
нако
надея
тща
окра
еврей
##мок
пытается
##тинг
##шена
##дные
взрос
Неужели
договор
Google
щи
требует
##горо
успешно
бер
##сятся
##ленное
революции
##снова
обру
поспе
позволит
184
##ровая
##цкого
познакоми
бомбарди
преодо
нанес
Вя
##тиков
яро
##сное
##жаться
##нью
##фона
##няться
провинции
##енного
воздуха
показать
превос
двой
##ленную
##сена
кисло
подро
Пути
тура
исполнитель
гостей
правил
Белару
Наи
Греции
позицию
удержа
единственный
психологи
говорила
##тными
1991
связано
En
трансля
##понен
лабора
Ага
проводить
матчей
регули
##емым
##доволь
облег
количества
##вера
глубоко
вернуть
ворот
##ссов
стояли
потря
оттуда
##рно
##пустили
либера
мальчи
##стный
напол
воспита
назвать
секунд
Северной
квартире
предприятий
книгу
##АЗ
##ровании
##ционно
53
боли
##пуск
энергии
бизнеса
Един
Воло
деревни
Насе
собирается
##зию
регистра
хороший
##гри
Ленинград
боевиков
##нутся
##лию
свы
ступ
планируется
природ
Йо
выглядит
музыкан
странно
серебря
вмеша
сопровожда
Австра
Итак
st
сообщение
молодых
##тельстве
##цова
будешь
другому
строго
объем
кладби
качества
Дне
Шве
членом
главных
Ван
мыш
русские
дивизии
зим
науки
напротив
игроков
прого
##ходом
поце
церковь
цивили
1943
коали
56
##рованные
Несколько
достоин
получилось
программа
##тю
##село
столк
##рович
территориаль
действовать
пункта
##дора
считается
табли
поселения
соглашение
##серва
социальной
мусуль
##ob
##года
договорен
профессор
исполни
крестьян
играл
##мыслен
сравни
привлека
партнер
читать
губы
##лк
нав
##терна
страхо
отча
расстре
стена
умира
авиаком
ООО
пое
##тацию
миллиардов
Обра
рано
определ
##пин
квали
##рского
еписко
считаю
гуманитар
##рят
объяснить
городского
программе
петер
Брю
Петра
услуг
спасибо
летнего
Спорт
##ly
Бай
Новый
54
транспорта
##стки
Вин
встал
показалось
183
Фри
запро
чёр
##вяз
дважды
чай
концу
Ам
любопы
обеспечения
кризиса
Извест
идеи
местные
##теры
живут
Институ
прости
de
гне
позднее
факу
##ллу
правила
партне
принадлежит
##тится
ранены
##тт
##графии
##неф
гори
##ld
##шают
ракеты
торо
уто
поднялся
##нё
другая
глупо
##тировать
##полу
Рим
оставить
##нном
Хан
Леони
сби
хватит
номе
предусматри
следствия
##ковского
принес
осла
механи
подготовки
Сара
##шкин
проверки
сосе
концеп
попытки
##ЕР
больших
Тю
полном
выр
бросил
снаря
делам
каждом
доли
##сыла
тря
##кол
Нов
искрен
впло
Лиги
подобные
статус
през
руке
отклю
проник
##довали
##жима
сюжет
##ландии
Лав
верно
Ей
полуо
##ец
##няются
Особенно
обеспечить
обма
побы
мон
ремон
Больше
##вард
основных
солнце
сверху
квартиры
посред
##вёр
попытался
##БК
фонда
причине
##ляются
мисси
##рат
политика
благодар
новостями
колон
зага
свидете
##дала
Причем
Тебе
полка
веке
Запа
Тран
рассказала
прино
промышленности
повтор
погру
известный
уве
совместно
соц
дочери
Соедин
Иванов
выходит
##жается
Другие
##дишь
##ковые
Вз
территория
##ковский
##служ
комнаты
заказ
нашим
##рился
останется
##тк
##баты
смотри
замер
вск
неви
большого
расти
грудь
приме
##ian
##зила
знак
испа
сверх
##тический
социали
Al
подобных
будущее
старший
Сво
##твори
господин
иллю
воспринима
делега
настаи
##мите
заканчи
предоставля
57
##голов
##тли
1998
ВС
##ченной
Откры
бла
кофе
губернатор
орби
участок
Лука
отметить
отделения
ано
##душ
ход
##риев
несчаст
русской
посвящен
видит
Дер
родителей
гряз
Доро
зелены
пытаясь
##роятно
Главный
пожела
впечатление
##береж
нашем
XIX
##дю
убить
##куп
хокке
онлайн
##ters
американской
181
большей
##сова
положения
обнаружили
американский
жду
уника
вку
института
машине
##блу
воздухе
Управ
оставил
сэр
штаб
58
сена
комплекс
многое
граф
##дли
подпи
образу
Жан
однажды
кожа
Шо
ею
американского
пойти
молод
##шенной
местного
##рено
01
##действие
вар
кот
отоз
составила
происшествия
флота
##сибир
##манов
оза
##тивным
##ровой
##крови
инициати
делал
Роди
изготов
готова
##рованной
##тельством
программу
##чины
переписи
Чар
текст
попасть
остаться
справ
свыше
будете
журналистам
ваше
контроля
прибыли
##лимпиа
прочита
##ord
парти
силами
отправился
##зовали
солне
##ran
собственно
деревне
участвовал
конститу
##чью
маленький
марки
чемпионат
писать
оказывается
сердца
Тол
##тел
блок
Сен
корпуса
##ведён
испыта
затра
случаев
девочка
нев
бук
журнала
##рас
диску
патрио
бал
Прем
плате
диза
содержит
Pr
конц
##валь
штаба
Bl
выпуск
##шенных
##эта
##жие
##словно
посмотри
впереди
речи
приказ
любит
резо
##тино
Вообще
инвесто
король
выдержа
##вшему
##метров
прили
введен
экспеди
бен
глоба
фотографии
огра
моим
##рн
Пара
неправи
нечего
актри
охран
запол
рису
Стре
нём
##совет
##леть
граду
остановился
видом
жены
лицен
класс
Twitter
заплани
ветер
наступа
целый
##жность
моги
действие
кула
планы
##стся
зв
занял
громко
взры
##дации
Такое
будь
ответа
хозяйства
##тари
ребята
Иногда
Южной
Харь
##чками
##рованию
##др
##чее
##вия
взор
##даго
##вающих
Гарри
траге
пан
следующем
##фт
пога
Обы
избежать
письма
конфликт
##нете
##лят
робо
пита
Уни
собо
последствия
убийство
стрелко
ФС
участием
потра
взяли
Цер
факульт
дура
Сочи
архитек
рассказывает
утро
выступления
зарубе
##менов
ул
исследований
пространство
Джек
мель
Нужно
потери
Аф
##рг
скри
поя
оты
Киева
почувствовал
Вита
Высо
##стное
полиция
Тихо
гиган
полный
Кири
Тра
подписал
скорости
пытались
Какой
##ep
недель
признал
высказыва
восьми
окно
1992
Население
Сау
Союз
##ій
##тельству
##РФ
##ost
пило
зоны
##водить
четыр
##хла
альбом
окре
станов
населён
передачи
прояви
отдельных
усмех
##ив
чемпионов
справедливо
##вку
статистикой
посоль
##мур
высокой
##ритет
продажи
##мили
##дец
Мир
прока
Пан
девять
получения
дальнейшем
подтвердил
##тров
Егип
чуде
начинается
нормально
##литься
комплекса
##ell
Свер
1942
национали
##тав
фрак
эска
высказа
Стар
Конститу
Антон
##кле
Много
Вас
вор
##женной
Тимо
##нье
призы
пойма
##ждению
##центра
смени
ВВС
голосов
энерги
##ct
ответить
среднем
опубликова
##воо
08
нефте
##нилась
Париже
честно
Подо
последней
вошел
##дняя
Лей
##чете
##шеб
препара
останавли
миллиарда
вкус
Роман
командир
уголовного
белорус
началось
заранее
корреспонден
главной
##теров
##верил
союза
обвиня
##фом
минима
проектов
##тение
родители
оформ
карьеру
Te
улицу
отдель
проще
бассей
беспоко
задачи
1980
##пать
Крыму
##тство
остров
Позже
сухо
##льность
горы
спасти
сила
спать
##бай
действует
##зился
позволи
сохранить
##СТ
ориенти
сетях
припо
Город
городах
Эк
Госдумы
забил
интересу
##гала
комитет
фильме
##вица
государственных
отлично
##under
Бере
япон
одни
израи
услов
шум
пункт
военный
участники
##ge
расследование
Борис
процессе
обез
опер
книг
вело
id
##ейс
взяла
дово
##чис
##зион
выступил
условий
насла
##ился
##торами
##бки
ке
Америки
половине
обоих
Зу
##жим
побереж
происходя
ОАО
85
фин
решить
добиться
технологии
перевоз
##дных
##лат
##енса
##зне
международного
Фло
##фии
столом
пля
корреспондент
##кель
утверждает
##жнее
Груп
наци
##АТ
намного
имена
Акаде
1996
мото
дорогой
упомя
фана
банки
Сама
основании
##такт
КПРФ
разъ
бир
обнов
Человек
Орга
режиме
делом
##ял
экономической
страшно
рекон
возро
Швей
шка
создании
##ологии
59
произошла
##ind
литератур
опровер
##дерни
ходу
рестора
самостоятельно
мальчик
играет
##мыми
отметили
##тивное
поговорить
премии
естественно
Оче
вино
дают
Вне
##хам
беспокой
##тивная
квартиру
второе
поставить
##гона
присво
##вик
причины
1994
##женного
Уилья
Сева
##ровался
торговли
выступал
артилле
Ольга
##жными
регионов
##21
специалистов
##мане
сило
Азии
##щенко
##tt
урегули
подразделения
сбе
1997
увидела
##женно
поставил
##отно
Деву
занимается
Информа
руба
вздохнул
гибели
Зато
астро
групп
дев
Василий
кораблей
описы
инженер
##стон
##шали
поражение
ЛНР
кризис
планирует
##ИЛ
рассказали
писатель
блю
##сье
восхи
##товых
взрыва
Медведев
правления
спектак
ограничи
##ваете
лидеров
##лябин
Кру
##стен
кло
данной
европейских
брю
##лана
гол
индивидуаль
сига
##ft
теории
подвод
##жий
живу
осталась
##поте
курса
око
##лести
коммуна
##мить
препят
##жур
смогла
везде
нерв
##менту
сан
процента
педаго
привез
##стики
Ву
##рены
Гали
установить
##юк
##всегда
районах
записи
непосредственно
трак
чувствовал
##ющему
звер
##пред
Ростов
соеди
изобре
пояс
##новский
##сылки
университет
##вшаяся
120
разво
политике
координа
вопроса
РБК
желе
нож
избави
папа
огне
##мби
##стным
Минобороны
шай
лежит
##ковым
Луи
##чук
помимо
пошла
##стской
будущего
Разу
##лланд
##ждены
товаров
Белоруссии
Чего
состоянию
потерял
мгновение
##НО
##сек
Патри
тамо
проверить
стихи
##бым
режисс
работали
##ционная
бата
герои
книге
##петь
##ственными
Елена
уху
материал
периода
##летия
##сев
прояв
расследования
душу
дворе
сексуаль
##рель
старый
нефтя
интересы
картины
##пка
Мол
Татья
украинские
##сий
скром
предстоит
##грав
яй
постара
аэропорта
зерка
##бен
##мова
##чён
перевод
проспек
Интересно
небольшо
Куда
уско
1993
оригина
материалов
##ума
син
руководства
используется
##жности
удара
нарушение
учреждения
жан
Отец
обязанности
##лича
тет
##метов
##шила
болезни
причаст
повез
границе
##ственности
1995
##бят
ОБСЕ
понимал
##end
##йдя
##гнуть
произошед
политику
63
вов
Гран
продуктов
трибу
##правед
Кро
мин
специалисты
секунду
пробе
нос
радика
##поля
удастся
Хе
поступил
Земли
рекорд
##дана
##льев
сотрудничества
выжи
приво
Германия
лето
приехал
армей
здоровья
пенсион
##тировал
Испо
##Рµ
Сим
Такие
Одно
##ss
сторона
смысла
##рене
Рича
референ
номина
ладно
Сталин
судя
возь
крым
##турой
рассказать
вечера
Предпо
динами
аэропор
услышал
понимать
киев
этапе
Сиби
##ДР
вашего
обмен
воде
##брасы
демонстри
стене
Авст
потя
600
получает
зак
ля
62
##ровку
##ud
комменти
забро
ожи
##нении
окончил
##тивов
гимна
##вати
СН
неизвестно
растер
принципе
##щь
##рк
категории
стой
Пожалуй
канала
близко
ремонт
исключением
Читайте
занимался
##емое
губернии
##брали
считал
като
Давай
##бый
шоссе
злоу
##кового
Бро
Виль
накло
##деся
немало
Зак
##зме
##праши
##бал
объяснил
попали
шанс
##рис
Право
##ченного
понадоби
примет
##вяза
##вказ
опасности
##москов
стоят
##рели
Арм
имела
##ющейся
думала
покой
95
эль
больницу
Отмеча
встречу
угол
доллара
крат
##сель
лети
медицин
##шель
вытащи
##мули
подчерки
блока
личности
99
Новосибир
##швили
вызывает
вон
фар
##ющимся
журналистов
бумаги
женщину
съе
тенни
Боже
##жеб
уши
эми
платить
интеллек
предпочита
получится
отказаться
прошеп
##бек
телевид
##дея
##тства
АТО
76
волн
заг
министерства
##бет
евре
##ченным
сидя
##тическая
пусто
оса
услуги
##чалась
боевой
Солн
##син
третьего
раско
##днев
грана
сон
частей
чём
инциден
изменить
##ванных
правоохранительных
результатам
положении
веща
##ack
произведения
Нау
тема
Советского
имеется
Руко
консульта
границу
футбола
переход
##скочил
##лика
##ври
прер
Thunder
материаль
веру
оскорб
##яр
опаса
сыграл
законом
##пира
ногами
приятно
поправ
##стил
попробо
легче
##хождение
сказано
##тения
мошен
планеты
Свобо
разумеется
допуска
##вий
использование
Дра
кресло
Уо
новом
размыш
посмотрела
вопросу
оставалось
академии
Гит
ресурсы
Северо
De
Большо
совершил
фло
твои
##шинство
Андрея
Донбасса
ауди
ассоциации
сегодняшний
##нными
##ниям
мск
пограни
прокомментировал
наря
олимпий
##вто
##ционное
институт
тари
руководителя
##движи
ваша
##пала
##ципли
##бормо
##тяну
проби
Викто
улыбнулась
Похоже
представителя
##uters
##мно
Севасто
отставку
именем
всякий
##ГУ
противополо
альтерна
имею
##рим
ходить
впрочем
самолё
##дие
житель
1970
##стической
приняла
бюро
##кола
ближайшие
будучи
сеть
##голь
оружием
дорого
скончался
##se
##ваюсь
музей
дорога
##зю
Какие
лам
сумел
изменений
##воохран
вя
##коль
добавля
##вающие
повернулся
базы
бого
оча
##вершенно
Локомо
сомнения
предлагает
подклю
##ЕТ
вынес
Поскольку
преподава
молит
Официаль
артиллерий
1960
эксперты
суток
потерпе
03
##X3
дре
департамента
##чиком
силови
ополчен
страх
Reuters
вообра
##нета
академи
вдох
##прият
##10
Отли
Хор
продолжать
твоя
напоминает
нара
предпри
обрабо
##щиеся
##мири
##гих
подумать
##вина
подумала
Боб
аварии
полковник
преследова
сборную
пригово
выступает
простой
масса
отече
##бь
гран
ярко
##шками
подзем
Нава
милиции
жизнью
потенциаль
герман
Встреча
выразил
задержали
спину
Индии
##цева
##льп
документ
проведение
##номо
##стройки
05
держать
металли
играх
Грузии
##жих
учетом
ощущение
Тан
##вано
68
пытаются
ThunderX3
нрав
армию
оли
приказал
вни
транспор
выбро
##мель
##кома
##тору
чиновников
ничто
Ката
Com
##банка
##ver
реально
компанией
дале
Органи
Сай
Слова
народов
здравоохран
##енная
реаги
источники
возбуждено
Первая
масштаб
Стро
тренера
Мака
##цвет
ордена
сочета
рыба
разоча
штат
Автор
беженцев
запас
осна
##леб
##лович
сложности
Бел
##ждением
бег
Карл
77
##лево
леса
заметили
Максим
устройства
модерни
##вающий
вина
Мек
пойдет
араб
##дная
поддержке
##РѕР
удивля
выяс
жал
##дру
серьёз
сумма
кабинет
##право
Польши
канал
Администра
теп
склады
##зви
вещей
72
состояния
попол
бороться
вспомнил
лы
##нейших
##пь
общественного
##ast
днев
66
приказа
карты
лейтенант
Бре
подсвет
стоимости
звание
выполнен
##хоз
изначально
##ос
загля
Петров
менедж
##фан
волну
##рома
продукты
продолжил
международной
начиная
иной
вырос
сознание
Надеюсь
##никова
##надцати
книга
жертв
охраны
##лялся
Теле
ужас
показывает
кампании
##фей
##метим
мнения
пони
##дного
##новой
экстреми
##хожу
плечо
группировки
отмечают
Позд
##чии
Нас
испан
дю
Яцен
отста
##фера
собирался
Лан
##чивать
недоволь
передать
##хан
служи
Олимпиа
##щенных
##блоки
плечи
Зенит
плюс
теоре
командой
версия
заметила
##няла
лоб
концерт
моде
способен
##совета
исследователь
советский
ученые
взят
Лондоне
Николая
современной
##ER
Азербайд
стиле
Бель
успеха
бок
##рои
##слуши
Луганской
##ОН
контрак
##рисо
ЦБ
выяв
верши
##твра
##эк
падения
1920
состоялся
ехать
прия
компенса
позна
##ive
##ДД
##чел
Вся
##КА
десятки
развитию
##рья
##жской
насчет
##лится
ресурсов
Сере
старто
остановить
назначения
достижения
грн
07
##ванный
аргу
Красной
Франция
целях
Компания
##рных
открыто
##денти
прогу
напомнил
замы
намерен
женой
##под
ногу
названия
заметно
ЕР
##per
Дю
Венг
##банк
персо
сидеть
##ткой
вторая
научно
замуж
боже
открыть
сестра
МВ
мероприятий
содержание
запах
начался
отме
##совой
эфире
первен
Пен
составит
пробормо
изъя
ваших
##ону
школа
поражения
##рать
петербург
км²
##стили
Универ
оказаться
Сооб
свободу
поинтересо
Отмечается
рассчита
##oy
##дева
навсегда
любил
доброволь
04
Большой
состоялась
ВВП
##рые
выиграл
забыл
##ленном
волшеб
магни
озву
##ческому
государственный
предотвра
словом
ухуд
Брази
переу
поедин
##нив
пови
раду
##лд
Бур
##ок
Экономи
рад
сно
районов
советских
выяснилось
##юще
поток
недвижи
участвовать
спло
Екатерин
##Рё
российским
Газпром
##стого
последним
деревья
Обе
##тарь
характера
##скет
признать
02
ранения
частично
герой
179
инду
самолетов
правду
##az
Марк
Сотруд
##рпи
поведение
73
округ
верить
стру
наказание
##пуль
Стив
раство
расходы
делали
контакт
входят
финансов
давление
гордо
мозга
опере
моем
природы
служеб
пострадавших
иди
1930
зря
хоккей
Министр
Дона
договора
##деква
##пель
ищ
офицер
Спартак
митин
нано
стари
##ДП
Тар
думаешь
обществе
пен
показали
1940
прокля
серы
Мало
депутаты
##илли
Премьер
фона
##шала
уточнил
авиации
доход
Челябин
твоей
брен
Иванович
недав
полтора
пальцы
питания
Обо
уса
топ
военнослужащих
задум
университете
67
нах
##димо
понимает
леги
##сет
Юго
тормо
демонстра
1939
Дом
##емонстри
своём
удержи
##мами
ущерб
высокий
##енько
углу
определить
лежа
угрозы
##нусь
сдержа
получит
долг
грани
понятия
вклад
##пами
написано
##близи
следующие
атаки
##чились
нападения
тщательно
##граф
нагруз
Вопрос
ИА
##рыз
##пр
Ирана
Сав
вплоть
Tim
1918
Победы
##ne
получать
философ
1989
##ry
аккура
##жига
Прости
реке
1917
половины
Джен
минуте
Кай
подходя
Спу
основания
паралле
прида
##рованного
кладбище
убы
ПО
технологий
##пти
экипажа
комфор
Гражда
западе
##ff
Арави
поняли
Лор
отметила
Говори
река
проду
монет
городу
800
дока
настав
начались
борьбу
российская
##коном
провока
данного
поколения
неплохо
Чемпиона
##виков
энерго
подробно
просьбой
принадлежа
Ознакоми
проходят
сделано
Ган
хода
Верховного
##мети
платье
##шенный
недалеко
задержан
детьми
успех
Следу
вере
почита
Air
риск
##шок
лучший
докла
Родился
Дани
Мои
Дет
морской
душа
дебю
средней
##ere
##кость
##хин
атмосф
##сомо
новостей
работников
##шай
Яну
начинают
Нака
протянул
звезды
девушку
##зади
укры
Мур
Джона
##ряс
коридо
контак
Обама
решений
собственного
министров
колен
61
##24
Большинство
необходимость
Пос
поду
князь
свадь
скла
издели
острове
старше
пье
##дкой
зубы
##ляя
дому
що
Швейца
атаку
пациен
Константин
оставаться
прошлой
##юн
Восточной
Михаила
##ером
отвра
Кин
корабли
##сот
Валь
Ещё
магазин
журналист
##восто
перехва
атом
золото
##лес
продемонстри
поу
мясо
привык
станут
желания
принимал
##вики
Эли
дисципли
##жке
фабри
Глу
##вшимся
250
##ака
покинуть
точку
Ознакомиться
Моя
эффект
##пова
##сками
74
очереди
дух
##чон
##ванные
надеюсь
четверть
##кона
Всемир
##драв
граждане
##ницах
Ленина
VI
поставки
регулярно
твердо
##____
Мама
подобного
спецслуж
##лакти
средне
крупные
Йорк
сп
лесу
заслужи
слома
##емом
сборная
##рные
страха
скажет
источников
основные
##жна
##рона
спуска
тридцать
террористов
следствие
##щаясь
кандидатов
наличие
стрем
##слава
оборудования
Запада
школь
продоволь
лё
##КС
раун
##oun
фонд
##дку
звезд
##вят
кали
##ющегося
матчах
предше
Отметим
призвал
пришло
появилось
Откуда
Калинин
Вяче
создан
известен
эм
Речь
Министерства
пространства
такси
##шенные
уде
пассажир
##льда
##щенный
##брав
покинул
относятся
следовало
##стречу
защиту
черт
прибыл
майор
Такой
ФИ
##ай
##лаз
находилась
чужо
##янно
Участ
отряд
дове
гражданской
медве
ура
##рда
убийстве
##eg
выйдет
##где
Какая
диплома
Время
отор
подда
снижение
##ровались
Норве
пользоваться
##ристо
Благодаря
всяких
Израиля
собственных
черно
разор
##уре
##стная
украинский
интен
зовут
##сал
настоящему
снять
колонии
отвечает
Главное
устой
##кови
Ar
##фаль
месту
спусти
музыки
Иоан
миссис
известных
предложен
недостаточно
иду
прозра
##80
фили
##енным
приходит
помещения
##пила
отношениях
Стран
целей
мусульман
император
Афгани
реконструк
##тером
кровати
##гнать
Московского
блестя
долю
титул
нере
хран
база
отдал
лов
американские
полю
оптими
среднего
кап
законы
заключения
генерала
бак
Илья
##слей
Ответ
##рал
Игра
бесконе
большинства
муже
##онтакте
##хие
Алексея
пострадали
скульп
эксперимента
видим
##бл
##пто
Вместо
заключается
##дзе
меда
##лона
##ёв
эксперти
##ов
Окон
Уэ
##лине
скор
Саха
ВКонтакте
Коми
Впервые
камень
сочин
Америке
##тури
раска
##сипе
##фин
довери
проблему
##стря
приготов
##щают
самим
Перво
##вале
##гался
всяком
##декса
инвали
законопроект
автора
##лялись
смотрела
служил
расстоянии
огромное
від
двена
сотрудник
##сным
##шите
##ьез
каждым
друже
Европу
##щали
консерва
раздели
##ала
советской
##ИТ
вступ
регионального
привело
ничем
заседания
##дик
Mar
годом
##фина
проголосо
##ровской
представления
группой
понимаешь
##зму
судьба
госпитали
##града
обнаружил
функции
дипломатиче
ть
колени
ФСБ
насчиты
обладает
неизбе
гигант
##дика
появляется
насле
##лков
##out
##вязан
иденти
##ису
больнице
Смотри
Давайте
корпус
##РУ
оппозиции
друж
адвокат
адмира
топлива
Лучше
чудови
Над
штата
##зино
Нидер
глубине
контр
белых
хорошие
автомобили
дорог
показатель
патру
имущества
зная
причинам
пишут
центром
песен
закри
Девушка
##ib
ограничения
догада
Латвии
турнире
усмехнулся
##рный
Дмитрия
1000
лучшим
сущ
продолжают
##бит
ждал
бою
мани
солнца
крупнейших
остальное
округе
Николаев
##левой
Скорее
ликвиди
соответствует
##BC
вызыва
Куба
##чам
всеоб
##ждую
прокуратуры
офицеров
пру
ИТ
немно
вернулась
##гоцен
Около
идеаль
существенно
судов
федерального
компанию
наве
разрешения
##дете
поез
##говой
дворя
альбома
##диа
инспе
краю
##ass
##лежа
ВМ
связаны
гон
подобное
запуска
врага
лишения
князя
авторов
элемента
##зовы
аэ
уез
единственным
##ваешь
Королев
##чков
полицию
указыва
Верх
Саудов
##дре
вооруженных
решать
##сило
бух
давать
выполнять
одет
полк
Гро
операцию
фронт
счета
бригады
прийти
##ph
Пря
##нях
требуется
собственные
эксперт
фаль
Почти
##нус
лицу
читал
пола
возвы
App
##вах
тенден
лежал
зача
сообщают
пресле
прямой
существования
голосования
RE
Выс
##ain
традиции
on
наступи
##ity
##ore
He
проверя
заседание
эли
топо
севере
проф
успели
подтвержда
мыши
хозяин
06
конкурса
выражение
ведут
положил
убил
##ленными
Sh
Эсто
##тками
##мита
свето
##зала
ошибку
звук
врач
симпа
мотива
перео
никуда
пожал
мино
установки
##зина
IN
крово
ветера
большинстве
официальном
Степа
началом
всякого
современных
##чилась
al
появится
принимает
Сю
теми
переимено
##длов
национального
##кен
тени
бог
допусти
##баров
англича
кури
##мбу
Рё
уважа
остаются
туристов
##ГО
списке
Эл
ваго
качество
##мед
69
комментарии
перекры
потенциа
самую
замок
учения
Gr
отделение
##тес
##АМ
##io
мигран
работой
Роберт
экспертов
указал
сознания
странами
##'s
телеканала
народной
поклон
сия
дыхание
открытия
сроки
розо
##таться
Валерий
Российский
##киды
побо
отличается
##ust
прину
музея
смя
плана
##ственность
Париж
проводится
Кол
используют
Первые
коп
задол
испытания
ство
Власти
##гим
коричне
снаб
согласен
скажем
трубку
##тория
здравоохранения
стоять
аварий
обита
##рода
применения
белые
покло
Вашингтон
навстречу
потребу
измер
уступи
##ционную
полноцен
травмы
продолжается
рын
##25
озера
детям
##жек
операций
одобри
Министерство
##мона
результатов
##тность
жену
1950
##чени
этап
происхождения
Судя
Иису
швед
лиши
71
##рока
##женным
премьера
товар
кв
##ata
Председа
железной
полное
##произво
интересов
Краснодар
трой
##грации
пож
опасность
вывод
изум
##скетбо
командира
футболист
Осо
Весь
Суще
предпоч
пользователей
бойцов
швей
ждут
##ox
проекты
царя
##зости
воскликнул
температура
юге
##кну
Суд
отдать
##НК
##ора
приговор
Соответ
обши
патро
игрок
весело
##рея
ФР
Понима
##ont
Комит
побли
бази
##ковать
велосипе
##ват
начнется
сильный
смарт
##льти
##довых
##мета
Воору
прозву
временно
преимущественно
вирту
##дились
суть
Анге
батальона
##рению
удовольствием
финала
##ip
проводит
сектора
разработан
Сразу
возраст
помогает
##ловой
деревьев
западных
##ash
##аги
огромный
бронзо
заболевания
вел
включает
престо
Барсело
##личество
расста
благополу
офф
смотрит
войсками
Сар
необходимые
сотрудни
Анти
идёт
улыбкой
домо
газете
##без
IV
обращения
Новая
хватало
Черно
структур
роско
литературы
берега
обоз
вошла
давай
молодого
##меялся
внешне
оку
##ложили
килограм
министром
##сную
Говоря
##дире
архите
цене
##метри
придержи
##вшуюся
берег
Эду
заря
##дав
нала
##жны
##ренных
ровно
сидит
##ЕЛ
##чались
увидели
Первой
##телось
Br
регионах
сдви
Пау
крепко
Востоке
боепри
третьей
вторую
находиться
сосу
думает
особенности
Кни
разница
##щийся
московского
##ttp
##гель
##вичу
расчет
##ционным
Меркель
телефону
мирового
действительности
обеих
##бам
пожара
вспомнить
коммуника
##вшееся
##ствова
порту
устави
смогу
учитель
##ram
##ith
86
полузащи
буль
##торе
приго
уверены
##цепи
тяжё
http
##тиру
Тере
Болга
третьем
решительно
реформы
обыкнов
лихо
вход
Хэ
##нутри
подверг
счету
непоня
прошу
##рного
пистолет
Хай
даст
Сту
работала
рассказыва
задумы
моро
рассказ
##сне
следы
собрать
научных
##ex
улица
реальности
проходил
##РА
половину
пообещал
Виталий
провела
##гере
депутата
сидели
Нидерлан
лай
Однажды
поо
партию
миссии
мі
##енное
Разумеется
существование
##РЅ
##див
связанные
снял
подготовке
стри
виды
##хим
##ляция
таре
западной
придет
Ус
идею
леди
прочих
##голо
опе
благород
Скоро
##тины
лени
вооружения
пробу
зелено
единиц
строя
сказ
##ИБ
##ждена
##тс
снег
вступа
подал
##щенные
заставить
##чах
здании
поры
высокого
Наши
лестнице
одежду
больницы
Привет
десятков
внутрь
живых
картина
##класс
видите
жаль
жизнен
вынуждены
принципи
Закон
пресе
являлся
##ведены
семью
карту
народу
##щался
##чём
вещь
создал
##ште
капитана
участке
градусов
##щаются
нетер
некоторым
Смолен
Ближ
мальчика
обоснова
плей
студентов
решением
Австралии
Ирина
летняя
Далее
Экспер
бои
хотим
##гана
##ждал
мисс
сдержи
запрет
##чному
##зали
миг
республикан
парк
Хол
курсе
вопло
фирмы
Олимпийских
Вале
отрасли
##гай
политического
осво
распреде
экза
Видимо
##тилось
собственности
Подоб
##ковый
##СЂ
##ренко
влияния
выигры
борьба
ада
Гол
##сня
отказ
be
Василье
экономических
пари
сигна
Анатолий
мягко
седь
строить
вступил
##язы
детали
Кен
##зву
##кович
комбина
гвардей
пройдут
ошибки
поведения
Пя
78
структуры
выбора
##вила
Мэри
термина
грубо
Цар
существуют
##ОВ
аэрод
отказались
##жался
Накануне
бежать
фильмов
текущего
Генна
##числи
экономике
поход
назвали
##ществи
определён
орке
Порту
больно
попала
##сада
##тивную
Денис
Яков
або
продю
боеприпа
##сали
внешней
темы
здоровье
пуле
Вороне
чьи
рее
##idth
покачал
##ставка
построить
##ствующих
дат
ТВ
пеше
Наталья
ФИФА
##ich
спаль
жар
сбро
дизай
пить
иско
##тран
##илл
##щенно
Бон
##50
Мекси
четырёх
веж
##ровке
поддерживать
отцом
вовремя
##чья
Созда
одежды
ожидается
##тности
##тивными
Баш
политические
отчая
Господи
протеста
1988
занятия
дина
стадии
##шкина
присоедин
вернулись
высоты
рок
Богу
балан
краса
##женность
главой
Прежде
комментарий
стоило
авиакомпании
расту
##ковы
любые
##ровок
Счита
##бии
возникает
проигра
Эдуар
долга
занимал
провозгла
клубе
700
##чники
##провод
праздник
RU
аэропорту
силах
вопросом
##воро
картину
общий
Вра
Un
трам
полицейские
спросить
##граде
Сити
получают
##хая
пакет
двадцати
прочие
Китае
##падает
##тация
Алла
доми
вышло
моду
дополнительные
представителями
##СА
драгоцен
##30
Стоит
Помо
Единой
имея
понимают
рассказывал
##тологи
счёт
хватило
выполнения
дала
Кажется
Буду
медали
##sp
##контро
Западной
##рака
крикнул
экологи
Сви
сним
Рµ
черный
##тическое
Прин
театр
##ond
группо
##ционер
осенью
комиссия
Гай
смеша
Израиль
направление
##iz
четко
##жского
Спо
расто
Неза
автоном
пары
##реть
##FA
##чках
Евросоюза
##женная
хлеб
##жина
полгода
основы
кожи
взаим
проез
Наз
колеба
отвечать
танков
журнал
способны
увеличить
ово
Верховной
##дак
самих
социально
##фек
шпи
мгновенно
темноте
беспре
ас
каждую
взглянул
оре
провёл
##che
##ork
##бке
##водит
мост
##лость
рассмотреть
приступи
куро
мемо
солдаты
##сой
закону
пут
стару
##кора
Рѕ
погре
отры
рассла
оборудование
поставля
Але
повезло
Đž
гидро
нейтра
##лости
мете
уверенно
бывают
##ссор
фунда
доказать
##стического
Российская
задач
туа
Ситуа
обращение
экспорт
##ate
##GN
Украиной
шею
отъ
засты
следующее
славя
##пке
символи
военную
Иран
общественных
баскетбо
Британ
связанных
отмен
представление
Наиболее
##мара
доволь
Доктор
высоте
снизи
нашла
##ряз
81
говорите
##юзе
Изви
способности
неот
дочер
84
способом
##иться
каме
Стани
каждому
любят
следующего
понимаете
ут
игрока
##шихся
этапа
Национальной
вещества
победа
телеканал
постели
##дья
стараясь
ввести
##дря
##мерно
слезы
Минске
старик
клиентов
Зенита
думаете
признался
годам
разговора
##шиеся
незнако
Am
проговорил
шар
шля
сад
твори
отдельные
##шат
Вос
Андже
Проек
Лев
Миро
отвечал
Депута
позади
безрабо
храм
правом
откло
труп
Расска
##хал
позволить
доля
##жут
Вет
господ
йо
президенту
##нической
смотрели
принятия
зрителей
##водя
написать
становятся
разведки
заместителя
Жири
опыта
принялся
полицейских
##рхи
флаг
здорово
пальцем
Уз
конгре
многом
месторо
храма
виру
##хова
##деб
сапо
ЦК
##день
Тя
интересо
##плек
исправи
апо
утверждают
благотвори
обучения
императора
дежур
называли
запись
завершилась
запомни
арестован
##дным
##био
иран
Татьяна
##пустила
Казахстана
Молда
Рома
##ствовало
оккупи
контин
Исламское
суммы
уволь
знания
одея
вела
##вис
79
преобразова
##чеб
среды
##женности
##мотра
факты
возвращения
##ТС
станция
##виду
неи
преступлений
##спорта
следующей
##жались
##чна
Нача
Обще
счастье
##стах
##нек
посад
кивнула
##ix
Яку
линию
##amp
##ссель
доказательства
мечта
История
Майкл
Европа
умо
отправил
наступление
старые
##пит
Советский
коме
Тех
прекратить
падение
разрабаты
сцене
##пии
##стере
дефици
уга
передал
Никогда
репута
памятник
прим
##щенной
удивился
ушла
выклю
Беларуси
директоров
Коммер
##лав
половина
набира
девочки
ске
ветра
##стояние
местности
развали
Нев
подар
##дена
способность
выяснить
беремен
подраздел
ОП
Ом
входя
стер
подхва
##новение
МВФ
Первое
Посмот
##ure
87
хорошего
называть
сорок
зала
Новоро
Самое
защите
##гнула
посчита
##тался
Ой
СБУ
Йорке
счастью
боевые
помог
бре
каждая
иску
Лай
законодательства
крей
##ТР
сохрани
принце
молодые
##man
##началу
Шах
##бия
играли
посёл
##центри
приклю
Робер
##шер
формирования
белый
убор
гаранти
Широ
малей
Арка
решению
технику
осуществи
Жиз
народного
лучшие
##БР
##ляндии
письмен
##жник
идеологи
Ля
82
разработ
##UM
устройство
Бывший
US
##надца
поддерживает
##мысли
Дай
финансовой
программи
надпись
Входит
архе
##ire
##щались
Apple
самоубий
Тома
доктора
##дило
Зве
достигну
сепара
Такая
Песков
Группа
##вицы
Всем
зате
##моно
направлен
весной
подозри
##лектро
##дилась
инструк
##реб
Последний
Вчера
малы
шаги
сотрудничество
собеседник
пуска
##юри
поми
Сдела
##свя
похорон
Наш
особого
полета
звезда
разобраться
зон
##кости
Атлан
старого
порой
семейства
генеральный
скоростью
целе
исход
многочисленные
объекты
старой
волны
живой
серьезные
схо
хиру
##зиат
удовольствие
художник
New
##скохозяй
добавила
известны
какими
современного
Times
номера
Были
##эл
##груп
News
содержания
##ствию
пригото
представляют
##кнуть
Обычно
пункты
французский
##ветом
##дневно
обеспечение
##гера
##шков
боевики
редак
##зуется
конфи
свали
##слан
миллион
заявлении
воли
##ену
сигнал
периоди
уезда
сканда
изби
грома
Востока
кирпи
создана
сувер
сообщества
96
##ченная
полную
давайте
##жав
повышения
обойти
ознакоми
88
попада
упала
специалист
приви
жилья
##сны
русском
жидко
сержа
магистра
провали
залож
коммуны
Центр
зимой
Жо
наг
##шной
тексте
восток
Государственной
прису
оценки
подле
патриар
##честер
проигры
рада
парня
лёг
Румы
общения
коллеги
израиль
##рек
капитала
Швеции
привел
Земле
занять
##зли
предположи
палаты
столкновения
языком
менять
удовлетвори
##нулось
стену
повышение
еги
##нешь
##ставит
чрезвычайно
Понятно
Кристи
##лое
пределах
музыку
реклам
олигар
##дской
операция
Леонид
##ci
аф
##мотрел
пуль
происходило
##пети
эвакуи
ставки
##ане
полного
Свердлов
распла
1938
уничтожить
закончил
дья
Азербайджа
##дное
##вь
хри
детства
##боры
Геро
засе
##сист
капитали
грозит
пыталась
хорошая
##ёра
пространстве
привели
##are
арби
ряде
земель
##благода
пальцами
зданий
##куль
сож
высокие
базо
местной
верю
Ох
Импера
##фия
Продол
##люсь
ударил
подве
сидела
дивизи
1937
##хнула
комисса
Ава
функциони
##стии
Никаких
невероят
границ
актер
Сек
выса
##хами
##стыми
Дере
Правительство
лед
инфраструктуры
старин
войти
подлин
матер
убили
окажется
безопасность
старых
использованием
##сомненно
##домо
проме
лечения
##илла
турнир
оставался
обязательства
степень
1986
прися
##виль
несу
##казать
отпу
появления
пределами
Сист
шер
##дых
гено
Твер
типи
направился
##ok
уступа
привлечь
идей
шагов
Мей
##ИИ
личного
обратиться
полет
##полномо
наблюдения
Enter
Виктора
предварительным
замени
появление
досро
срока
Волго
##сай
You
##ченно
вож
американцы
##тью
Точно
возобнови
мозг
Дома
##стрий
журна
составляло
биологи
епар
публикации
##шедший
уходит
##ционеров
##севдо
аван
общи
##пот
Варша
любое
Иркут
##честве
ушли
Спустя
заметить
комментариев
фай
1987
перспек
##емости
начнет
##жок
##цкой
##форд
детек
городских
излу
поставок
##ведению
кресла
ставить
заблу
линей
##лома
доступа
##rom
резиден
предприятие
##коман
КХЛ
##далеку
ученых
эмоциона
Марии
убит
попытка
меньшей
вторым
объект
гале
##делиться
wh
театре
Елиза
##ровский
пли
Спартака
пад
##мил
наказания
Плю
##oe
правительстве
объекта
просит
le
рев
дерева
##най
правительством
евреев
160
##ровалось
эволю
кровью
##кии
##ПЛ
Игоря
Уж
черные
максимально
##ствования
новому
успела
Казалось
беспоряд
доходов
электроэнер
зарабаты
Вд
Подроб
##емую
ослаб
178
центральной
агрессив
трансляцию
182
Лишь
XVIII
продать
независимости
предоставить
##ens
просил
##TER
Необ
##ненко
одоб
внутренней
Финляндии
застре
поверхность
интернете
##дек
уверена
секунды
расстояние
восточной
##льф
востор
##чиной
##лени
##гнали
Нельзя
песня
аэропорт
Бру
Аэро
Опять
##йду
##ъем
баррель
отрав
сзади
1919
##зиди
Лавров
пери
вблизи
коалиции
служить
аппарат
случаи
составляют
пропо
вызвал
забыть
##рма
возобнов
называет
##работать
тип
чел
возможностей
выводу
Распо
##GNUM
визита
надежды
поднять
прибе
контракта
мужчину
Бой
REGNUM
квартале
смея
осужден
проси
1985
областного
кандидат
НХЛ
праздни
угрозу
твоего
пиро
похоро
песню
Ричард
##рованная
##вес
еду
Университ
сделки
##11
сыном
слушать
входа
расположена
десант
ошиба
статью
школ
##нис
задумчиво
##жили
##RA
Одним
оборот
Ким
воспользоваться
избра
училище
перевер
соч
безна
тремя
сумас
проходили
выходить
макро
погло
Бей
хорош
судна
воле
жут
уровнем
серде
приехали
##стар
Евгения
Ивана
##уго
Тек
вину
судья
сельскохозяй
##кера
##tr
Лос
##ченными
показался
дождь
внизу
пропуска
анге
Ильи
чудо
выгод
##лизова
задачу
исправ
пома
третье
рос
век
врагов
избирателей
руководителей
монито
предложили
продолжала
пище
Ау
политический
сталки
Русской
территорий
купил
разработки
раздался
встретиться
собрания
расходов
кримина
позиций
гроз
финансовых
Позднее
##лились
усе
медаль
бессмыслен
##спор
набере
##чева
Корр
льго
специ
огромные
непонятно
искусство
пострадал
достал
церемонии
договорились
##тропо
производитель
##фрикан
Нео
заводе
Кремля
разма
радости
##снаб
Женщина
удары
##таны
похож
сигаре
##тара
безусловно
Результа
##грать
##нель
действиях
##чиками
##лица
вашу
врачи
продолжить
золотой
поезда
произнесла
контек
прибыль
парке
##кистана
областной
##ros
##ладен
товарищ
банди
подарок
сепарати
военнослужа
задей
Калифор
золота
##рым
83
Ситуация
стабили
бывших
##пления
лошади
виртуаль
Кады
Христо
ЛДП
регистрации
Тара
##нические
хозяева
##шний
##хотвор
разнообраз
##вее
влюб
аппарата
распах
судно
##зопас
управлять
Рядом
##кову
##льце
Лондон
отряда
##зив
немцы
##ани
источника
##лёт
##бно
##летом
##ковая
татар
сани
##мила
an
Смер
неприя
первыми
государством
##дис
##ведением
Мариу
##тоне
футбол
метра
добраться
##ляю
разрешение
Первым
##чан
областей
ежегодно
мяса
##ock
банкро
дам
КО
##ue
перехода
##ong
##лятор
заняла
Вадим
##ИЗ
##чаю
любую
##жев
выго
Армении
Действи
Чет
##берт
Шан
рю
##чком
##vi
группах
Октябрь
инвестиций
##веду
огнем
хлоп
пробормотал
учитывая
использовали
выступать
Джеймс
красоты
Её
сайта
##хот
детстве
устра
Сбер
каждое
проверку
код
служа
парка
подходит
посовето
высоких
намерены
177
присутствие
известного
лагерь
веществ
основным
##ровалась
##хай
риско
продаже
Решение
мэра
боях
##писать
Ала
##летряс
Чай
очер
правой
Госду
участка
механиз
опасно
таин
##рки
##ссом
Дэвид
навы
площадке
городом
пр
съем
требуют
рецеп
##таря
холодной
Завтра
##летели
серий
фракции
фикси
##рку
Press
неудоб
построен
карман
##тивном
##стических
тюрьмы
шансы
австрий
принят
хозяина
старался
##чника
финале
бомбардиров
заро
уехал
немецких
89
насме
##летний
##ьем
собираются
матчи
соперника
финансирования
оккупа
немецкий
компонен
рассказывать
письме
редакции
мошенниче
гиб
тира
дворец
##зиа
Питер
соци
Насколько
##часа
##зар
эпохи
Фё
##ханге
##рых
Кубок
неле
кусок
специальные
Гей
##зам
повторил
моста
слухи
объединения
##СЃ
##уз
##ТБ
левой
лагеря
##ФСР
поездки
декла
Чел
Ярослав
вызвать
рыб
возможных
твое
радость
##стрен
##теле
возглавил
Неда
Поделиться
провод
##ул
Долго
##ube
##кове
портал
##рилась
width
проведении
невер
кад
Марга
Института
Савченко
держал
##стин
поверить
Лебе
практике
108
Đľ
большими
журнале
шеп
свойства
##новского
##филь
##нели
учился
прокуратура
Защи
Францу
выпи
Следова
перейти
##тическим
Запо
интенсив
Екатерина
террористической
1984
объя
##нительно
цы
1965
обещал
сход
почувствовала
##рота
уша
Армии
прочим
##AS
прице
Марина
туман
натура
установлено
бага
долгое
лихора
кабинета
отсутствия
масте
подошла
##строва
##дую
позиция
##лист
псевдо
продаж
существа
height
мусо
великолеп
худ
ЛДПР
сделает
Росто
was
назем
##дыва
перешёл
##ционном
зама
версию
##ленд
иных
спине
профсо
Мать
эвакуа
РСФСР
##лизации
##зах
Кузне
Иса
активности
спон
вечно
##ненные
готовности
волос
карта
звон
##вился
неподви
открытие
настой
туристи
##ИБДД
Дании
увле
выполнить
Кос
самолеты
материала
ближ
Мета
испор
упро
##12
соз
добавить
общее
it
длиной
собственный
##постав
ислам
хозяев
##нический
дай
точнее
перешел
реакции
объявили
Академии
давления
швейцар
поисках
вероятность
мобили
четверо
Новой
##тры
желу
открыла
аук
Матч
улиц
##пливо
Пробле
канад
видимому
передви
рва
создавать
диамет
проща
чиновники
##потреб
карте
братьев
статья
подрост
##ссам
Новгород
голосе
французского
##раль
##десяти
откро
индий
##стика
английский
портре
Клин
##жутся
предполагает
незамет
##нялись
подготовку
поддержать
секретаря
тера
кусо
Трамп
тел
борт
нов
цену
##думан
Ари
открыли
##жников
##ice
Христа
##дес
федерации
считали
произойдет
##ick
подробности
враже
##нар
крестья
подход
Жур
КНР
##стественно
##ear
Мужчина
целиком
используются
реку
Тво
##слова
убира
##ченное
вследствие
молодё
заключил
Фак
ракета
требований
Дем
кош
экзем
рассматривать
КН
племян
дерево
##ect
ожидать
##ae
Нар
##oup
развитии
посыла
нашему
очки
Бразилии
царь
прор
подбо
Кло
имущество
собрались
##мога
пик
председателем
##контакте
##ими
тиши
двигаться
сюр
Сбор
##хен
башни
флот
ступень
упор
девяти
игроки
пробо
##ленко
линия
чувствую
фраг
продажу
##логом
лагере
Знаешь
взо
кано
личность
монастыря
##лениями
Капитан
вздохнула
##чится
ведомстве
набрал
##градской
бесполез
##oft
сочув
Наша
единого
Эм
##шники
##уса
##рации
##щала
##ank
##зель
Единая
предъяв
проверка
зону
свободно
Представители
броне
взгляды
Най
передо
растя
упря
##АЛ
##her
##имость
Уви
генерального
покупать
массы
##ЕФА
сторонам
##жья
Чемпионат
товары
##шне
##ственному
отдох
Ды
гражданин
гли
##нару
благода
веков
Вдруг
восстановить
бесплатно
предс
назван
нарушений
пребывания
уха
законов
трагедии
мане
##ГБ
обучение
арест
объявила
##глу
Большая
поту
родной
студии
ждали
защитить
кости
##станови
##ровав
последнюю
##нических
Арс
автоматиче
повест
заложен
##чны
страда
альян
##чине
##начале
##лак
##рский
##вающей
героя
Алекс
УЕФА
Комму
подобно
1946
Арсена
помогать
фамилия
имеются
##tern
ребят
элементы
##американ
##ерьез
развле
друзьями
участник
##питы
сопротивление
##ence
умерла
##нём
педагоги
Бориса
Иначе
новость
российском
исходя
базу
Опера
экономика
ежедневно
##фель
немцев
1975
проводят
голланд
##рист
1968
##суа
разгля
проре
героев
результатом
присла
прими
##део
справа
говоришь
принимают
ман
ссыла
Аген
защитник
отдельно
индей
оправды
чемпионом
1979
иро
асси
растения
вооружение
Неме
авторы
поцело
политик
##меры
этаже
ожидал
##доне
методи
##ment
следующим
##стик
показала
болельщиков
Иоси
сцены
аку
Круп
произно
выку
##евна
Мель
списка
Руси
моди
элементов
отзы
наблюдать
княже
ИТАР
двоих
потребовал
Мона
Сли
Предполага
серия
оборон
Сэм
##ky
областях
великого
130
##гр
освобождения
подра
Манчестер
##ЖД
установили
зени
добав
Класс
##фана
земе
ледя
крепости
защищать
Хер
Ск
понимание
заблоки
Татар
оставив
Арген
##ляла
представлен
опубликовал
##товые
природе
отправить
РЅ
##летела
составляла
лома
дивер
Артем
неподалеку
военным
##нюдь
миром
Пресс
мирных
##стят
актуаль
повод
##ін
созданию
Tele
помещение
шири
накры
ведущих
расположены
середины
##номи
полномочий
##сера
Московский
участии
покон
ябло
##кнули
затя
Голос
св
Тео
установлены
Земля
частных
лопа
##продук
директором
отпуска
сотен
полито
1982
97
замед
##ствующие
Джордж
боюсь
курт
установлен
моменты
РП
изли
##следование
оставили
магазина
##стия
##еро
Сотрудники
помощник
старшего
приподня
увидев
Действительно
подальше
дым
полчаса
водителя
вашему
судить
Вконтакте
допустить
звуки
нелега
Экономика
кандидата
Име
подтвердили
98
дистан
снего
лист
рады
хорошее
окончании
победил
слове
##ровского
##извест
страной
срочно
врачей
философии
собственную
1967
художника
замол
американцев
важным
растений
посу
неред
производителей
Роснеф
посторон
поставили
Силь
медицинской
ир
резолю
##разуме
нахму
поды
такому
анализа
выби
связана
враг
92
прочь
общественной
Прекра
реформ
родственников
##рики
##енность
Банк
ликвидации
летней
увеличение
##лилась
выбрать
Повер
посет
скре
##говорила
возме
АН
количестве
пожало
советского
обруши
##опера
улицах
нераз
рит
допро
рабочие
телом
правилам
нежели
выросла
##браться
представлены
ов
концентра
горь
поселение
возьми
наиболь
танки
метод
маленькая
пенсионе
##дона
Сти
Папа
освободить
штурмо
анализ
##ссон
##колов
Одновременно
горизо
судьбы
Лар
боги
составили
##нская
##ённых
1973
однозна
##дуют
народных
восстановление
Донбасс
ударов
##ows
Ниже
видишь
##40
организацию
Какое
поправи
Кня
превышает
##стном
Часть
##панию
##БА
валюты
Иеру
##хими
телефона
траги
конвер
поинтересовался
##преки
is
Ара
1966
крыла
зарплаты
повлия
Слов
ценности
1972
послыша
пещ
Чеч
##живать
заняться
##old
1976
актриса
##цина
тюрем
избавиться
Пожалуйста
угла
канц
ужасно
Яценюк
Никита
серию
географи
склад
##уна
подав
органах
преимущество
ключ
стекло
преу
бай
отреаги
обратил
километрах
##бери
##читывая
исполнения
доставля
170
Очевидно
немецкого
подска
Казахстан
преступление
Донецка
профессора
занимаются
коррупции
организовать
начнут
мыслен
настроения
##евского
##нена
Глаза
that
упраж
выяви
лон
хру
палу
наличии
Пом
пох
разря
графа
прие
Le
##вной
сэ
##ненный
понятие
судей
ходатай
##зис
собак
1963
##пела
двум
красный
##талки
ухо
цени
показания
##ame
услышать
возможным
морских
младший
##рованием
Двор
шлю
Объедин
экстра
парков
##жах
##ang
выступление
узнали
вред
подно
деви
рейтин
##дравству
##чую
##лоне
##бус
событие
Лукашенко
использует
вертика
Коммента
Pro
Моро
Уча
механизм
важных
1964
искренне
заставил
зуб
хищ
цветов
открыт
чувствовала
##ational
настроение
акцен
востоку
сыграть
##ходится
принимали
крю
Брай
Газеты
##uss
Вспо
##ИЯ
следить
Оле
Олега
великий
холодно
добычи
потеряли
INTER
Ex
записы
##риф
озабо
сестры
##жаются
системой
##лэ
счастья
фестиваля
Занима
Хабаров
варианты
Рань
душ
##провозгла
Представитель
некогда
стекла
вслу
энергетики
Будь
##ung
приостанов
перекре
##ллин
сег
##новых
главная
Клю
ежегод
генети
выводы
импорт
удобно
воинов
тотчас
катастрофы
заключение
ух
##хли
##жье
як
1983
отвле
черной
1974
##евский
состоялось
местом
##няк
властями
рейтинг
Цель
Раньше
##рё
нормы
карьеры
Сибири
Ель
мяте
конкурс
гвардии
указывает
Порт
Слава
Ца
##FAX
массив
пределы
##дке
##сюду
грип
INTERFAX
масло
Павла
##лям
изображения
моск
##гается
продав
чувств
выно
современные
католи
высшей
попробовать
святого
сомни
##тину
нигде
насилия
английского
регион
оттен
женщиной
девушек
мировых
сможем
прогнози
la
##стие
набор
произведен
слева
еле
##цвета
Фила
растет
at
налогов
выглядел
брази
упомяну
человечества
##ОЛ
СНГ
##ковича
##ранже
получив
ощущения
Хью
##слом
землетряс
стул
основу
##воло
убежи
достичь
младен
Помни
партизан
##бль
национальных
муниципального
категори
##шало
Диа
непременно
вин
дядя
наре
sh
насы
опуска
ков
соревнований
эксплуатации
Остальные
Член
грамот
официального
создали
отва
93
остатки
##гаться
удовлетвор
Работа
поблагода
направлены
Кирилл
диссер
судо
##ковал
##нического
Российские
оско
Уда
цифры
раб
1959
##рита
акка
проходить
заявляет
доллар
видят
Коб
дожда
птиц
монитор
нынешнего
Служ
управлением
делается
кресле
твою
предположить
взы
штука
затруд
просле
Вячеслав
судом
разгро
вернется
##17
задержаны
Хра
1981
напрямую
Мет
Была
соблаз
And
##новым
заведу
превосход
собрав
Рез
##веси
тренером
спер
##щиком
справиться
приблизительно
##дского
умеет
боло
зачастую
инцидента
планируют
Попро
встретил
##кинул
##водство
##тику
##ЕК
предложить
численность
##хина
Председатель
лечение
компро
повери
участвовали
Красного
##нится
зла
промежу
ладони
Демо
знакомый
1956
лидеры
взаимодей
привлек
схватил
##енька
подразуме
полным
Собственно
европейской
Оказа
слышала
собран
ВТБ
спортсмен
##гности
Берлин
Ран
вызо
оформи
четвёр
верхов
предусматривает
контролем
##ваемых
лошадей
Ph
пятьдесят
надое
Куль
форума
##iss
изы
лока
##чников
##лео
закреп
сбы
носит
Програм
1962
зелё
уверенность
##ton
маленькой
женщине
завершения
##нением
режиссе
##йдется
бана
дохода
автобус
короле
обсуждения
дне
Кавказ
многочисленных
искусств
поворачи
Польше
Шей
##тельностью
маг
самопровозгла
получат
##рованным
нередко
жертвы
поиско
россияне
играют
##тятся
кабинете
очка
маленькие
##ax
Футбо
камни
доходы
побед
Томас
проч
Вероятно
жилищ
##суэ
##oci
отнюдь
мэр
убивать
камеры
##маны
методы
##ies
экспедиции
гендире
вооружений
##джер
герцог
всякие
##ам
кровать
обвинение
украинцев
детских
констати
смертью
представлял
стремительно
Всероссий
поделился
усилий
##вокуп
засу
деятельностью
пыль
Восток
манев
посты
1978
##ринг
Анаста
самоуправ
##ностями
##скольз
жила
журналисты
прекращения
Утром
1948
##we
обстоятельств
инфек
общую
Гроз
Гера
полуфи
средствами
важное
Пы
РАН
##60
##ктору
107
невозмо
##торию
##пропет
задержи
представил
##уда
угрозой
братья
Вече
1936
Сталина
стадионе
тюрьме
1929
учреждений
половиной
снижения
делаю
позволяют
Бю
орденом
возникла
применение
##йдёт
событиях
статистику
соотно
проекту
##чилось
Оска
бара
Австрии
отказалась
медиа
Америка
##теро
эт
Проект
заведения
проро
западу
несовершенно
финал
гармо
зоо
##шные
лиге
Святого
1961
мотоци
безум
родилась
##бей
деду
##каи
успехом
главно
поднялась
брак
##шив
первонача
Даге
главу
1971
Шев
вздро
мешает
немецкой
крупный
Национального
AI
##ровую
отцу
учиться
##lin
прикос
девчон
##нялся
собираюсь
Подмосков
мигрантов
##берга
##нора
планете
длинные
##нау
воспитан
##тике
строительстве
признан
Грей
##бое
повстан
черты
дополнительных
преми
##тости
двигателя
отправиться
регла
посреди
итоги
учителя
конечном
РФС
##туи
РК
Шот
##ертво
##везли
счё
##стройка
Бое
коридор
выходу
Род
запер
twitter
заодно
ИГИЛ
проводил
Колу
##хара
заты
Черт
предыдущих
информи
НК
юби
сторонников
кольцо
##ТВ
тропи
Максима
убедить
перемен
перестал
1958
Венгрии
площадью
2020
112
товарища
звучит
успо
110
##pe
Перм
словах
дороже
##мора
Арханге
##анали
хоккеи
помол
точка
Дальше
лауре
молодежи
врача
настоящего
давал
стакан
памятника
1977
Георгий
##тифика
##мести
работо
отправились
##стских
фронте
##шлись
воздей
сотрудниками
бросился
ребён
использовал
##чину
членами
госу
квартир
союзников
покра
премию
Канады
##бла
стихотвор
стиль
собаки
грам
##ковской
##age
##цин
желая
цветы
подразделений
виноват
поси
бараба
##фта
поэт
осуществляется
примут
Белого
##нину
допу
аккуратно
пальцев
шагом
сообщить
игно
ай
рисо
Урал
реализова
##lay
Каро
or
поменя
##нейший
птицы
1969
предметы
многим
последнем
годами
газет
##тельница
##ническая
цита
КНДР
##тового
##вель
конструкции
pic
зона
##динг
независимо
##пев
тоном
Прошу
гипер
Две
##тет
##ПК
незначи
##пели
Летом
шле
выглядеть
проведет
несколькими
невольно
ряды
91
##бку
промы
писателя
планах
##разви
примени
##ish
Площа
любых
1957
выступили
семина
Вторая
призем
Полиция
щел
спортсменов
перепи
бирже
конкретно
##ьян
##сец
небольшие
движением
иные
международный
бокс
##дентов
Арте
ласко
автодоро
исследование
дабы
стремя
массовой
Сэ
Могу
хлеба
Солнце
своеобраз
Краснояр
презента
оказать
ядерной
Казани
забира
принцип
общая
слад
Юлия
выросли
##вающая
##вара
горло
невиди
двигатель
фунтов
Петрович
Египта
##бют
коротко
побу
Рожде
выве
##тках
##ваи
предлагают
правам
Длина
##рали
ходил
разгляды
Лы
##национа
хор
##мп
попробу
##АП
инцидент
войско
каран
##лиять
Другой
поде
наж
произведений
удивительно
пей
##кают
специфи
##ковник
##uc
нашими
##ились
Макс
коллег
Мартин
Африки
судьбу
случая
инициативе
площадки
донес
аж
##ровало
Жизнь
лидером
##пая
переговорах
##шева
##прокура
белой
отозвался
ГИБДД
изна
Ираке
используя
приу
повреждения
Хей
лез
##дового
##циан
##ood
болезнь
упла
интересах
утрен
надежду
дикта
подчин
сельсовета
лежала
игроком
экипаж
единственная
Соло
##села
соответствующие
рубль
подсу
закрыть
СКА
Поло
независимость
клубов
прибави
обернулся
обратились
репре
##шников
неба
##дному
Изда
политиков
Библи
специальных
##щейся
гара
властью
статей
использовании
известные
усы
##кия
вызвало
##водится
##дир
##зона
управлении
награждён
подняла
вытя
обеспоко
Трои
островов
##нема
отнес
заменить
Португа
личной
Матери
##жер
##лока
ногах
рабочей
##бля
французской
восприя
##работки
обнаружены
выполнение
1954
позвонил
поиски
подавля
##еров
выплаты
обуслов
лозу
чемо
Центральной
почет
изя
посё
дверью
Лео
рубежом
пятнадцать
организма
новыми
рыца
Основа
обсуждать
фрук
##рористи
импуль
встречается
with
отбы
Пора
Ада
##ами
торговых
высоким
##кладывать
ССР
матерью
94
##гиба
гражданина
изображение
##лі
волю
вырази
извести
напу
##енов
недолго
закрыл
Оли
##ah
срабо
неправильно
прошлое
Дире
Швейцарии
имеем
пойду
волна
нападение
черного
фильмы
##рировать
парни
Президента
##брала
обязаны
адеква
груз
реакция
находилось
##инг
позволил
волости
колони
отбро
Мос
поддержка
##женное
Дети
##стности
тень
ВСУ
импор
попытку
откровенно
проходи
##стое
##унд
1921
зрели
низко
Яр
трол
##пец
##мился
проекте
##рении
второ
корпорации
моделей
устав
носом
связей
##уме
окраи
##ИМ
определя
Учитывая
Ник
Зай
##маном
проходя
винтов
Будет
оценить
ужаса
неблаго
загадо
особой
распространение
чувствует
разговоры
##зав
##сенко
опытом
днях
Be
возвращается
1935
##зра
океана
эпиде
среде
##стинк
##стали
скольз
##крепи
мудро
скорой
официальных
1922
долгосро
языков
деньгами
слышать
Коль
знакомых
Известно
Маке
решено
Фонтанке
замка
тишина
армией
слышали
Буд
районы
взаимодействия
асфаль
Голы
##нову
победить
##нио
понравилось
лаборатории
поэта
##трин
Su
правозащи
Вай
##мощ
человеческого
таба
демократии
XVII
ослож
##сели
призыва
доклад
правительству
достовер
вызвали
Джер
заместителем
##щенного
внезап
заинтересован
объясняет
крем
Француз
наружу
показывают
информацией
рен
воспоминания
поступило
отмени
клавиатуры
##ёрт
##шнего
вопросе
Сент
администрация
телевизион
появляются
Саша
ЖК
непод
хит
давали
Лидер
Эстонии
стороной
##ждем
##oom
##руем
Сме
джи
Андер
##зает
последствий
##тическом
средневе
согласия
Расс
лошадь
согласилась
Гага
выиграть
присутствии
Необходи
Ук
Впоследствии
##летних
##брался
чт
##ненных
средство
испуган
кожу
полагает
авторитет
вскры
##вятся
туре
направил
столу
Ны
Вера
оперативно
артиллерии
Мистер
обратилась
литов
овла
кнопки
белого
Естественно
Увер
дешевле
сильным
Бого
приведет
##дело
Дви
data
Четы
Вон
ФРГ
режиссер
метео
отби
Юрия
участков
послал
местами
жилых
Коммерсант
##вающего
сектор
выез
русским
парамет
##ёд
осторо
Орен
##еном
продавать
любая
русско
##ждают
экономику
романа
выбрал
сахар
написала
действуют
совершить
наем
побережье
##рян
тём
занимались
несомненно
##ОР
Уголов
##рением
Стан
грави
Калу
огла
палец
##кторы
Непо
двора
##сис
экономические
##ime
Mic
##образи
##ренные
обсудить
ислами
##ach
##товый
автором
##везти
Светлана
ссо
обнаро
Каи
Желез
Дево
чужой
Кала
пропаганди
активов
##pt
некий
устроить
узнала
##вак
##15
путём
Наполе
расписа
крылья
Михайлов
##меи
##тельны
единой
Против
вашим
консо
Учены
продолжали
##душно
объема
Военно
встречаются
изучения
пости
прести
иссле
встала
смяг
Мя
эс
##чаются
корреспонденту
иннова
отступи
Эми
связыва
держи
Ур
религии
благоприят
клетки
подсо
1947
##ark
##шни
дождя
вариантов
Церкви
Послуша
дивизия
государственные
##сном
столицу
##мец
ситуацией
Джим
Супер
умереть
расширя
прогноз
заявлял
##щегося
##кеан
вреза
слову
озеро
##вика
стави
For
сотрудника
Васильев
последняя
исполня
##илась
духа
заняли
Сын
вою
Международного
посольства
позволило
заговорил
восстановления
обстоятельствах
быстры
оценил
сете
1924
Этого
##льте
причём
родину
##berg
текста
подать
Украї
##жего
монастырь
##ллиген
командование
мусор
мужем
объявля
имело
Оре
##тис
чечен
1926
Архи
тяжелые
разбой
Энд
##act
окрестно
предъяви
убежден
плы
решении
Египет
замен
публику
Улья
##зидиума
##энерго
Доку
сильные
мною
прохо
исторических
получение
средний
тексто
скажи
Извести
посредством
ввиду
Теа
норве
##вайтесь
еды
архие
нападающий
начальником
1953
##праведли
Балтий
снега
командованием
140
проли
документе
печати
следом
Wind
верхней
вражде
##ковь
свидетельствует
технических
прошептал
фамилии
Уил
Валентина
изменя
НЕ
жене
##вный
##круг
прокурор
as
чь
##гались
возвращаться
математиче
большом
постановление
1914
Заха
изменение
Черного
населенных
флан
кухне
научной
вампи
Музы
захват
Ребя
##ренный
длина
Новороссии
сожа
терми
взгляда
упразд
уполномо
наряду
возглавлял
##шю
распа
##рующих
1949
надежда
реабили
соглашений
##зацией
##дара
удивление
предложила
Беларусь
инструмента
северной
обрадова
покрови
оценкам
сельсовет
хитро
##нному
##лела
радова
орудий
оппонен
оценке
реальность
##детель
велел
Пру
##шени
##ллы
##стную
американская
##сите
##ИЕ
воспри
аги
iP
Карло
международным
дебютировал
Лицо
Горь
1933
подопе
Иди
святой
определенные
хорошей
загоре
взрослых
заклина
Путиным
##ъю
разным
настоящая
свидетельствуют
##хий
##йтед
##риса
манипу
Ожида
республике
##ждой
соревнованиях
техника
партнеров
Локомотив
звания
Григорий
ударом
бывшей
воссо
Примор
##выбор
прон
космонав
недово
Саудовской
Ирака
фини
Захар
Тим
рыно
сомнений
сержант
тупо
сценарий
прене
##делся
Господь
собирались
вдо
полная
насторо
ухода
Ред
местный
##льника
военное
извле
##ального
масси
СЃ
##жами
воевать
фундамента
началу
Юна
тысячу
##лта
супруга
силе
субси
##емыми
австра
Франсуа
служит
телекана
Уай
Вьет
##женными
понимая
##склю
внутреннего
сериала
склон
штате
одинаково
высшего
идио
квадратных
Рады
найдет
ведомство
близких
решет
вызов
самыми
чувствовать
##графия
Путину
хар
Артур
моменту
южно
бабушка
жителя
разведыва
удавалось
1934
дворца
агентству
Белорус
ножом
##теру
Великого
надеяться
сжа
финансирование
любовью
невин
делах
Специали
следующих
продолжение
собрание
финансовые
советник
XVI
автоматически
берет
##леров
Рам
действиями
Ибо
совокуп
дата
думали
##шён
декора
Последние
самоо
юг
разговаривать
##ых
подпол
оценку
##ссией
визит
населённых
разры
##жусь
судьи
крик
осад
##ренного
##ката
индекс
Профе
нехо
##сской
Тони
владения
##ОС
масла
сможете
##ьо
##выр
потеряла
долл
микрофон
облом
физической
советские
оранже
указ
носить
составить
##ровых
рабочего
Совсем
легкой
##летнего
празднова
Федо
Саака
ведется
лучшее
дожида
Карла
Чере
##чаться
##хнет
##orld
##нько
отчего
нар
Стоимость
древних
мари
отступа
больных
##тывает
редактор
заказа
палести
платфор
Абду
Интерфаксу
нежела
литературе
##ющаяся
вывести
урав
боялся
##oll
диапа
##лливу
оже
##деш
технического
кален
##тями
доказательств
ряду
злоумышлен
устойчи
правонару
камня
отсе
поддержал
Хоть
##дт
Хочу
устран
поиска
Челси
правя
максимум
египет
Астра
##ждали
Йем
дольше
стрелять
фигури
хорошим
проводятся
собака
фре
слышно
встреч
изменилось
намерения
посёлок
клубом
##ллет
##ka
африкан
высота
##тическую
##стрем
Федор
##еной
человеческой
заи
термин
массу
минус
легендар
считая
введения
рейтинге
##лели
угля
##19
##менко
##ас
лову
Ради
##ult
привела
##ванной
Ваш
подняться
Энер
нелов
данному
##ator
тепла
санти
##физи
наступления
своя
##Са
сообщений
Отно
Рэ
дар
Мило
Обла
привати
мастера
высоком
##крой
##TA
рыбы
попросила
зажи
несча
##верь
вреда
##рад
ареста
##ina
жителям
Отде
большее
##емость
доверя
возна
социального
##мали
Код
иного
паспорт
учеников
задачей
пиво
попытке
черных
Фар
Сена
пузы
контролировать
матро
единственной
электронной
кухню
российскими
владелец
Читать
##кистан
Явля
переклю
you
##мата
мысля
Простите
лете
Говорят
дверей
месяцы
пренебре
##АК
##МВД
Преду
Слушай
символ
##тившись
вдвое
участки
Кузь
Великобритания
промо
магазине
ухмы
Умер
заряд
##спект
нович
провода
выставки
выпа
##онер
##делать
##вшемся
##хия
непрерыв
инстинк
собрал
армя
##лялась
Конгре
##14
юноше
гнев
беспи
вашем
мощный
пота
дискуссии
отправили
сельское
высокопостав
домом
огромной
морского
яйца
Трампа
##мато
##льца
попыталась
Нового
Памя
##чествен
##іль
Холо
Boe
Управления
##стными
##альный
статуса
##жую
форм
Болгарии
рабочий
поре
176
приобрести
Здравству
Узбе
визу
РІ
Международной
недвижимости
##ченную
поселка
смешно
Group
##рив
обладают
карьере
разработке
##зут
взро
меняется
##кана
КПСС
Древ
лодки
диагности
Авгу
фигура
##trl
Вечером
1923
универса
##тус
##нены
единственное
уходить
##пью
Северного
Днепропет
полуострова
гарнитуры
падает
Богда
терп
решает
воздействия
адресу
радостно
высокая
##стила
##мса
объеме
охла
Boeing
интеллиген
симпати
признаки
любить
экземпля
приема
талантли
запрещено
апте
министерство
##ано
##ставило
##отечествен
Писа
##ставки
душев
нажмите
1932
дорогая
Абра
Система
говорилось
Франци
упре
округу
##тна
наблюдается
бь
##ide
Центрального
напа
##ньо
стоян
Кому
матема
Лет
рассчитывать
Афи
##ції
##дай
чей
Департа
известна
полковника
##прово
##коны
цвето
укло
коня
Гло
Ней
##гию
рациона
показатели
Эту
пригласил
забыли
сферы
тяжелой
слава
поти
остановилась
вежливо
Исламского
##ждается
крест
##чье
##pr
##da
##сился
##енную
предположительно
думают
##ходите
мыслей
выбран
распре
диалог
фантасти
пенсии
ознакомиться
транспортных
исполнении
сделан
пожертво
интересным
магазинов
организацией
твит
границей
##nal
Сей
##вные
Шер
всерьез
AIR
##ёром
круга
Венесуэ
Казан
культуре
##ссен
веры
Николаевич
Поля
Кир
Пала
намерена
влиянием
Ctrl
десятилети
связ
образе
Новые
##ПП
##тному
явление
намере
хули
##ристокра
разом
##статочно
ch
##точной
распоряжение
выходные
##праве
Константи
##просил
собственное
##надзора
выходе
манда
восстанавли
эксплуатацию
Люби
загряз
вслух
сессии
совету
домашних
Вит
Законо
Пор
вво
молеку
Пит
знаний
##вам
внести
официальной
злоупотреб
АЭС
Адмира
покупки
следовательно
Саакашвили
региональных
разбу
массовых
процессы
стадиона
соотечествен
чудовищ
##ур
Ленинградской
количеством
Интернет
нарисо
##рожден
возразил
обращаться
Берлине
подпо
вски
всякой
западные
гривен
Ассоциа
подло
неопреде
##тельному
Европейского
женился
##лис
##22
живот
Орлов
наблюдал
поначалу
Пле
реальной
правы
##дений
##откры
менедже
бель
##летней
факультет
победитель
Абу
Бет
##жники
необходимых
социальные
офис
расположи
офиц
##бавля
Норвегии
классе
##тово
спла
чувстви
пошло
предметов
окружающей
огор
особый
ростом
Самый
отсутствует
справедли
##деров
полномочия
фигуры
волей
посетителей
##шов
Вроде
ребенком
назначил
Катя
##новича
руководству
властям
устройств
Строи
##люми
Большого
сотрудничестве
105
перешли
##тта
съез
##щенная
проиграл
1928
##стского
расчета
балла
свободной
проника
Взя
реформа
показыва
сопри
##ротвор
##нома
перенес
##етии
высказал
лучшего
официальным
Добро
Чика
языках
теория
Ребята
прочее
Современ
обор
##устрой
##щиками
общины
##провода
запрос
ВО
потерять
выпустил
1955
Франк
Windows
сгоре
буржу
вно
исполнение
Каре
##ave
уло
промол
реме
духе
португа
фестиваль
спрашивает
Пользова
Великий
способна
набро
Зю
разными
фигуран
огляды
экономический
основного
Сак
пот
предвыбор
##газ
встать
##EX
органами
процессов
минера
аренду
юсти
проблемой
##нор
##зопасности
забе
основная
принц
детский
епископ
by
любез
номером
Владимиром
##подоб
##rav
##мечательно
УН
Кейт
##ману
кинема
##держки
отки
требованиям
##меялась
лежали
##ЛА
задейство
незаконно
опи
политическую
потребуется
традиционно
размера
нез
достоинства
признали
институте
цепо
ипоте
обед
##роди
##ated
маленьких
жо
домах
Wh
##терии
##тником
транзи
отстран
Международный
фено
Безу
коопера
стекля
побережья
Ори
Брюссе
осле
Япония
воспиты
Таджи
российско
виз
украинская
1931
Комсомо
наверх
перспективы
спасения
жиль
тащи
##ковали
##торо
красиво
избы
пилот
нынешнем
Кал
обычных
наркотиков
гастро
твоих
Вест
случится
заплатить
бросить
Любов
трудности
правах
порази
Западе
##жко
поселке
важные
южной
мелких
Павлов
открытым
##шный
Турция
обороне
угроза
тюрьму
Парижа
зат
мелкие
Площадь
кибер
Дела
шее
##штейн
ПВО
подоро
Губер
Жаль
неак
трассе
неа
##разли
писали
##черед
посол
Керри
ожидания
##гаются
##зел
личный
костюм
средняя
актёр
насеко
районного
Fran
делами
нижней
обычный
##ee
##юре
##лятся
109
##команду
Ass
##лила
Позво
гек
##ложений
полицейский
получал
карт
##кторе
Элли
##рованное
интеллектуаль
Ще
##рэн
готовность
##фикация
мечет
спрос
Обамы
определения
договоренности
мужик
активность
входил
кучу
гражданам
вооружён
##мину
гомо
Мюн
путешествие
##ване
принесли
забрать
экране
космос
Фонтанка
##DA
попере
приходят
прихо
уму
Хва
Геннадий
Юнайтед
молодым
центров
стратегии
Внеза
Император
Дэви
##енья
сцену
##ганов
шахма
ЧП
дальнейшего
признание
Аравии
состоял
школах
несет
арбитра
Бах
##нимание
##риться
улыбка
принести
Фильм
битвы
увлека
долги
двусторон
составлял
ошибок
одежда
Сами
##хах
финансового
раздел
##жаю
Майк
боится
##гоне
##тинской
оставались
конкурсе
раненых
##льтра
возгора
забу
кармана
расхо
республик
Италия
##немся
Cl
ремонта
Слишком
челю
толпы
важный
братом
Пента
внед
инвесторов
лекарства
Польша
ресторан
##лками
муниципальных
##18
просвет
##ыр
догады
Неф
явления
погла
нерав
реконструкции
##кино
венгер
pre
##лз
##эконом
санитар
ожидает
миллионы
случаю
перспективе
приостанови
##нейшие
ходили
##хать
сложнее
Место
Хру
прине
1925
Скажи
согласие
пирами
погода
##ПС
распоряжении
прозви
депре
##дией
полученных
ткани
1927
происходят
##рующие
лучшем
госте
Жена
Руководи
##ИС
совершении
равен
##работан
основан
глупы
175
платы
созданы
квартира
устроили
Божи
температуры
прокурора
соединения
плака
заж
Ол
1952
закончилась
сокращение
Асада
жалко
всад
сократить
цивилизации
воздушных
##страда
холоди
бассейн
бутылку
##ствующий
##ound
##шенным
тридцати
RT
рта
##ейсбу
жертву
скажешь
убеди
аристокра
Бара
##теа
европейские
##ляцию
Старый
интри
##праведливо
факторов
##13
##ії
кинемато
Семен
лука
Бак
специальный
##манской
##хоза
выглядят
сражения
гражданского
футболистов
уны
##планет
Малень
размером
нести
чеш
##тком
организм
##телен
изящ
батальон
Ad
бывало
мином
саду
аспек
ходят
Немцова
подписали
космической
##террористи
сыно
оборону
рассмотрение
URA
Кот
губ
поручил
сюрпри
##сени
создает
журналиста
собор
Общая
скандал
1905
определение
сообщал
колду
чиновник
энергию
стенах
камеру
беседы
##сию
Ставро
поздрави
отто
художников
смех
оснований
мега
##язви
##дром
##невосто
корзи
главную
ошибка
сетей
красивый
##ровкой
собственным
##графа
особых
##000
##шан
гражданских
джин
личных
обычной
##чими
преем
распространения
навод
термо
вытащил
##ite
##дово
Бек
широкой
Чечни
известной
десятка
экскур
подготови
общаться
##рун
хоккейной
соло
##ife
Германию
имму
экран
Ден
соревнования
успокаи
Ябло
одних
толку
мульти
Примерно
##шевели
воскликнула
##тони
##arl
удается
незаметно
##сеть
Магни
шло
Чехии
отодви
##тались
нево
мониторин
сообщило
Камен
##ai
уверя
##жины
обязательств
Знаю
отпуск
під
обойтись
припа
производстве
наход
родственники
нежно
Op
##ссекре
Король
уехать
тесно
##дивительно
полосы
пищи
мощности
иное
формате
Видео
дорожного
оправда
Фре
видимости
##жский
долгов
яи
поправки
серди
войн
потенциал
торопи
брони
Фла
##оти
крушения
погу
1915
уко
звонок
увеличения
брови
##льская
орудия
геополи
выбирать
##хую
продукт
доволен
розыск
##зору
Русский
дед
творчества
проекти
международные
мирного
практика
##жалась
Деся
##шаться
муниципалит
просить
##спа
писателей
##мели
кубо
потребитель
физики
Львов
сыну
##ons
расскажу
государству
сбора
договориться
крепость
планов
синг
Игна
Уор
##нёс
Конституции
Генпрокура
загру
Кирги
победой
музее
получали
Вашингтона
общим
драма
сокрови
зарплату
прошептала
кредит
##ровым
встретился
уменьши
##сказу
##нятся
собора
желает
тупи
Таи
Люд
иниции
ногой
находясь
медицинских
проход
покинули
##воци
помещении
дистанции
##пром
малого
выре
численности
##прии
##рядо
архиеписко
эпоху
прибо
##дс
высокую
умы
заключи
рассчитывает
наслажда
Авиа
##горит
диалек
спецна
одержал
достигли
отдельный
##линд
Штаты
нынешней
##ффа
Пять
Импе
небольшая
CN
Литвы
награды
дель
берут
ищет
##шенная
##70
Святой
##эффек
##гард
зарубежных
уезд
##гг
##ницами
обл
##ica
Фридри
какому
##метом
##ёзд
разворачи
стимули
##знача
держит
снизить
собственность
явился
богу
перерыва
ДНК
зах
учреди
административного
##Đž
##23
##пеливо
смотрю
##ющимися
орган
юстиции
Зву
##завод
Кем
маски
личные
Мая
Снова
корабле
австралий
снимать
##пия
потряса
изгна
летних
размещения
формули
Стивен
ладонь
наруши
Чарль
##пп
Название
##енными
высоту
Огром
##ану
СКР
стыдно
##DE
Хозя
##фий
конь
компенси
горах
повернулась
выпить
Этим
заверил
танк
физических
передачу
Ваше
экстрен
##эф
La
любила
хвост
бонус
наби
тяжелых
брака
розни
##ванге
подозреваемых
##тивности
захорон
командования
##мам
надолго
воздушного
пев
##шаются
спровоци
протекает
##ничество
объявлено
проводили
рту
сыграет
##емов
ставит
выступают
мысленно
обнаружено
развивать
вкла
мышь
собирать
Сербии
выдох
Свято
рассмотрения
##переди
услышала
отличный
хан
Горба
испытаний
претензии
Окончил
Баку
##вато
уют
пива
шансов
выиграла
отврати
отличаются
Центро
рыча
тяго
Плюс
чар
регулярного
Старо
защита
целую
полё
Четыре
короткий
господа
слушал
светло
дюй
Герой
компенсации
полит
поворо
акция
Хен
делала
ставку
соу
телеком
видя
лжи
посмотрим
голода
Расположен
##зией
синд
##шенного
детской
##против
##дые
доверия
Гам
консуль
симпто
убрать
Российского
ссылки
поп
##стаф
скрыть
уд
понадобится
сесть
процедуры
голосовать
##торам
Дэн
политическим
##варда
##сько
встретились
Автомоби
считаете
БР
поехал
современном
##гне
##сообраз
принадлежат
Основные
описание
диагно
##риях
##ww
маршрут
каре
##OS
входили
классов
сохранения
длинный
новей
погля
Яма
сбли
тяжести
Газпрома
руководители
алюми
выращи
Sc
##ug
лат
сущности
билеты
продукцию
##лочки
Финля
насиль
доставили
ню
компет
понимала
животное
условии
##галась
ой
##кки
мужской
##хлоп
Фонтанки
конкретных
##мел
Сала
заморо
битве
Доба
Кристо
##штей
##ложила
английском
##чьи
##штаб
справедливости
производству
##БО
поиск
смену
сине
##новок
стере
норм
светом
клубы
металлу
Адам
готовится
достаточ
Штатов
Одессе
##гур
сроком
спал
Бала
сун
##ционеры
Ого
противник
мотор
закричал
девушке
игрой
Эксперты
AP
купа
Сил
этаж
автомобиле
функциона
схема
##важно
отстра
троих
практики
лесо
людях
миль
хозяйство
данное
##хих
Ирак
крупного
вознагра
напеча
ПРО
гипоте
Тей
существовать
агрессии
Маша
захватить
осени
наимено
поддержали
вле
блу
биат
листь
##юзом
отборо
путей
##дную
красные
Жириновский
бежал
Инци
удостовер
прекрасный
##ющееся
вери
Южно
Кореи
перебро
величай
полагают
общественности
##ловину
выделить
мамы
драматиче
трижды
##феро
##довые
##нности
Micros
##цкая
положено
##тского
##больше
зая
контей
удержать
##тельна
специальной
этажа
##дача
юноша
значительной
проспекте
ездить
типо
настоящим
специального
жертвами
сжи
##ГА
Мэй
призыв
горизон
##бр
Прохо
украинским
смесь
##ражи
корректи
Смир
установлена
зана
курсы
дем
помогли
Хель
захватили
периодически
Кона
##ві
ждала
Прямо
вопреки
саму
вывода
опозна
План
греб
заново
##ournal
говорим
##вающим
размеров
UC
отчасти
стану
прох
каждые
##етах
Радио
Мут
жилье
денежных
Знаете
##стать
##тузиа
Африке
офицера
www
мебели
установил
переехал
##view
##тиве
Вокруг
##erc
прочего
Республике
Ученые
выходя
поздрав
##зоне
##гвар
##ныне
исключено
дебют
Банка
##бби
голосу
##плю
Советской
результата
пользователя
##менной
Кс
##фто
##мович
Надежда
этно
Оби
землей
позо
исчезла
Оси
##ade
плотно
##деев
красного
Бава
##бат
штор
страхов
волнова
лек
##хта
компроми
amp
молчание
поворот
Мастер
соседей
##щикам
количеству
старая
Дону
Национальный
двенадцать
добровольно
##16
исключи
эмоции
прито
счете
увы
Верховный
сопротивления
особое
рыцар
перевести
Дор
архитектур
поближе
Молдавии
инициативу
деревню
Треть
опозда
толпа
Цвет
##чак
Неизвест
Господа
интересует
наушники
учебных
артист
ходит
удивленно
поддерживают
капитал
остановиться
Григорь
заставляет
потряс
##чатки
1951
##атри
Остров
снаружи
страницы
##стала
общих
ядерного
##вани
возникло
молчали
Выбор
##клик
##развития
плоско
Москвой
девочку
Публи
выражения
российское
##чием
##возмо
Оказалось
таблице
##зак
##комплек
критери
румы
Чуть
СС
пойдут
Эрик
Донецке
гонки
риску
Меха
президенты
##int
простых
спроса
делаешь
пресечения
прошёл
чо
христи
пациентов
##лететь
притя
вмеши
ящик
СО
внешних
внутренние
##вичем
##гнув
Прак
узнает
плохой
##альти
Петербур
##казом
отсутствии
различными
##пари
защитника
красной
звали
##тль
добычу
Адвока
военная
##городской
##пина
игровой
политическая
предостере
##жкой
глад
ответили
##берта
Демокра
объяснения
подошли
Саратов
##нители
##ony
тё
Microsoft
госпитализи
##рывно
Инцидент
##шины
Возвра
выезд
Соединенных
совещании
Странно
Раду
ведения
хранения
критики
молодая
американским
насили
домини
меньшин
проходила
заповед
##вело
проезд
потока
Короче
сильное
кин
отступ
неис
отцов
##линг
un
Филипп
Белый
##вшимися
рестав
Остав
известным
##добы
сед
Сон
##сья
произойти
Люк
впер
кво
выступая
сфе
заболеваний
ненависти
Настоя
захотелось
предшествен
дип
обмена
совпада
Рад
Бельгии
НО
практику
Чарли
Vol
##пление
Меди
движении
not
Сообщается
упоминается
Всегда
полузащитник
Взгля
повысить
##делок
персонажей
горизонта
составляли
амби
##рием
##аз
Бэ
ущерба
ненависть
НП
кредитов
очередного
автомат
писала
прислуши
казни
акцию
Лили
Станислав
НТВ
СУ
##рщи
усо
ЧМ
Алма
Участники
сделаю
встретить
хмы
Подума
ЦИК
чести
развлека
Полицей
военном
спортивных
представлять
небольших
2019
Мира
##ньи
##вален
территориях
адвоката
бригада
салон
работаю
350
Вселенной
старта
секрет
ММ
футбольного
##ile
##лятора
##нси
Предупре
Депутат
позволили
спикер
Рон
##челове
возникли
тратить
делегации
##ors
инфляции
задумался
смотря
жёл
вины
лицензии
Intern
сид
Васильевич
жё
попо
Главного
##номер
##эля
джа
портрет
Год
ложи
внутренний
ом
договоренностей
океан
##ссамбле
странное
нелег
плав
обеспечивает
информационной
##зует
радостью
двигателей
возвращение
враждеб
##еся
оси
Лег
прихода
искал
британской
подка
направля
канале
##ёс
мигра
административно
Тен
удовлетво
##доз
Брат
условно
процессу
##гнала
электроэнергии
лечеб
sp
ультра
ступен
сумели
Уильям
предприниматель
Михайлович
##лком
Нац
##тельнее
произошли
##сим
постель
##зирует
Рї
##тают
свидетелей
миниму
командиром
Еврокоми
##быми
путешествен
стя
##никой
Леон
Алтай
построена
##точки
##рная
завершить
##ходим
пас
виновным
активных
##ппара
попадает
объявлен
распада
детского
направить
разговоре
##лизм
##ура
ex
Средизем
широкий
##дце
##скочила
интерпре
Тебя
похва
щу
пороге
усадь
руководил
наверно
трлн
фактов
наследия
языки
Начало
лин
руководителем
##вете
Сол
Третий
неком
##oh
ситуациях
##жди
оставалась
столо
молоко
гал
осен
билет
наце
вечерин
отобра
рассмеялся
##льском
##зира
Список
главные
нужды
выступить
##ванного
односторон
Тоже
призра
##уэ
следствием
камней
начинать
his
процент
числи
принца
подготовка
англо
##хт
троллей
Лично
##слави
автобуса
Внезапно
смотрят
Сне
ополченцев
Брен
торгово
югу
обслуживания
бросила
Анны
золотые
причину
выходят
судьбе
бойцы
опустил
чистой
360
посетил
сокращения
задание
##тьев
Досье
третьих
Ныне
понимания
Форму
Коно
утверждал
бояться
##ron
исторической
путешествия
Хочешь
шку
отвеча
пика
принесла
экспорта
спя
включа
##ссиона
инструмент
York
метал
Золотой
##ковую
точек
жестоко
стоимостью
##эффици
##лею
Сибир
запасы
влияет
##дане
герцога
##лосу
сыновей
дири
##лагаю
квалифици
незаме
Специаль
Солов
Двое
верху
##35
##единок
совести
шам
сумасшед
сочи
господина
##щет
Inst
##енький
Коз
##лея
AM
подписан
переводе
выле
серьезных
Свердловской
##рились
Будем
предупредил
доверие
популярных
Чёр
суверени
богов
поче
##органи
серб
Евросоюз
частной
нанести
##номии
преобла
удовольствия
пенальти
Януковича
бухгал
Ваша
Дама
бесконечно
сжима
##пс
повреди
категорически
потребителей
первоначально
металла
втори
однозначно
##нившись
взаимоотно
выдержи
Евра
##чивость
Палести
возвращении
оф
спорить
весен
пейза
хозяи
релизе
сильного
приоритет
копей
##ствование
бить
рейс
футболиста
научный
##aily
##говорить
преодолеть
Запоро
источником
экспор
коз
судоро
слез
фальши
пристально
приехать
Сборная
апел
фей
факультета
критику
##стрый
кубометров
Исследова
Существует
идиот
Комитета
кабе
тысяче
##чьей
стрельбы
банке
вылета
устраивает
куб
отменить
##кио
##вавших
произошедшего
достигла
местным
провор
Азербайджана
##миная
попытаться
##hone
законодательство
накопи
обвиняют
кругом
Проблема
известность
подобной
молчал
мульт
хму
выходил
сидят
##сар
##нило
Основной
##ствуя
##ционными
Элиза
желании
лицам
ступени
космических
собиралась
Дя
интереса
Александрович
цеп
ЗАО
местному
Следственного
Виктория
##целе
числу
выполня
##ням
Герман
впи
перечень
Адмирал
передач
##тишь
налоги
нуждается
##водил
##ворот
свободного
великой
приняты
голки
отклик
Официальный
Кари
##рову
бассейна
выбе
объё
стр
Изнача
танце
участниками
##нуты
полуго
снай
невысо
группировка
терять
располагается
##енности
сведений
оплаты
надеялся
трубы
достигает
##зиться
Учи
обязанностей
стремится
##рени
Команда
безразли
объятия
##ый
оценивается
Америку
##альных
организаторов
Веро
Федеральной
наука
вулка
Молодой
пустой
Джейн
##вайся
улицам
Льво
##пав
соль
православной
##альной
приспособ
огромная
##таски
Судья
##кас
четвертый
жизне
ветеранов
Смит
расположено
ценой
открытой
Третья
поколение
Голу
неувер
##sh
позабо
##стические
##нист
крыши
лейтенанта
пиз
видеоза
попросту
реакцию
Спор
положить
мощность
##юар
900
опор
даёт
сумме
мера
##дями
прессе
невероятно
ато
##рованную
##лар
##ланда
обратить
Ува
ограничений
##потом
ПС
Сахалин
живопи
телу
РЖД
остановил
лицами
моментально
конди
волон
##беру
остановились
##гиона
терпеть
ужесто
Моги
##биться
Любо
формально
казался
Причиной
работода
поспешно
воо
розыгры
необходимым
##казывается
выпущен
Деньги
Вей
возможное
##вавший
дорогах
##вных
Смотрите
стремление
отдохнуть
библиотеки
небольшую
##тти
Кубке
верит
Недавно
амери
осмотре
опустился
Владимиру
владеет
Кле
рыбо
штрафной
прошлый
Египте
разго
спирт
болгар
ся
ответы
умол
кругу
связя
##зеф
ED
##монд
##женную
пенсию
первич
высших
рулем
УФ
выу
пыли
думы
мяча
убедиться
##шная
трубо
##ild
остаётся
##точного
переби
перестали
##дым
##мён
##ваемые
обнаружить
требовать
боятся
попыток
основана
подачи
##ровые
платформы
См
##воды
Риме
Отсюда
предлагается
начинал
Егор
зубами
Жители
ЦРУ
вспомнила
вертолет
затро
вышед
##ИЧ
##нешься
Рио
важнейших
##щалась
Изо
беспомощ
проститу
Bloom
Уол
публикаций
лок
##стает
передаче
встречались
бегу
кадров
Фонда
Каль
##нат
##ллиан
архитектуры
##ваемся
набережной
российскую
непол
посвящён
перели
Лондона
множества
требование
строительству
открылась
поху
зоопар
##структури
Комментарии
апосто
британского
Извините
##печатку
посетить
гола
Иг
##свет
Первоначально
125
алкоголя
французских
Генерал
радиа
закрытия
джен
##приим
монар
относиться
##совых
пушки
РО
прекращении
пилота
скамей
топливо
буквы
самоуправления
обычные
летия
серьезный
##ведена
##хранили
посы
адмирал
молока
старика
офицеры
становился
рекламы
ухва
запретить
##скал
отставке
##точный
тести
структура
удачно
представляется
отсле
Северная
Славя
рассматривает
ГО
Ани
##динга
##тивом
зап
навига
смены
##тизм
угле
трю
##скри
##яли
Gu
разногла
Чув
##МС
Вряд
ожидании
тяжелый
эффективность
долгу
СЂ
бомбы
##ламент
нарушает
провери
станцию
цветами
##вязыва
Грин
небольшое
славы
постройки
открыта
машино
готовить
##te
##дое
настоящей
аренды
референдума
составило
публично
захочет
победителем
обнаружила
просьбе
##неры
проры
направлено
Пого
понес
находит
##ПУ
эффективности
##нинг
##мба
митинг
##ИЗО
форвард
Teleg
лучшей
кой
Ири
немецкие
вызвала
оборонитель
признаков
##ссан
странным
##ern
спортсмена
работники
##пси
Кова
называл
заправ
бесси
Узна
ожидая
пира
опасения
Любовь
##сль
лозун
попросили
шот
Апол
распу
сняли
Брэ
страшное
превратился
благослов
контексте
Немного
Едва
##ренной
##милли
колба
повел
призывает
космического
##зера
ош
##MA
159
Хам
##ненным
застрой
##падения
##альные
кольца
человеческих
Александров
определяется
Чикаго
верил
##корей
изнутри
##еву
соцсет
выпря
##лину
загово
##телях
содей
Вооруженных
красивая
##пам
завы
водохозяй
парламенте
Рого
Самар
##чивает
поступить
ем
##тизма
Тон
Bloomberg
##етра
##ффи
Совершенно
рек
крики
##блей
расскажет
наград
сведениям
Фрей
предпринимателей
синте
поступать
Землю
ищут
Румынии
энтузиа
задней
текущем
старей
вскочил
описания
пешком
эпизод
Церковь
##ome
Плани
следовать
волосами
Прошло
постоянной
огромным
остальным
появиться
Барак
процвета
##формули
нену
Часто
обсуждение
отдых
Эдуард
Солда
раунде
1913
доноси
международном
НБА
Губерна
разра
ĐžĐ
нации
гуманитарной
сорока
назначение
желающих
##логия
ВМС
владельца
##стическая
спеку
Аэроф
оставила
Валентин
попытались
майора
активистов
Ссылки
Ама
фигур
лиди
вооруженные
##ётр
технология
напра
##фим
отстаи
##нском
представлена
co
русская
дисквали
Ум
восстания
введение
Ливер
ложь
чья
дополнительно
торпе
нока
Ата
##алы
форуме
оказывать
прощения
называемой
##ДА
упали
намерении
первому
варианте
приехала
обычного
##главы
господи
просят
Коко
заши
##хали
МКС
коллекции
##деться
археологи
Стол
возможные
святых
исторического
ужин
##шался
закончился
гроб
спортивной
##нись
Кы
##лково
выставля
служб
Люси
##делы
Роса
залива
семьей
пришёл
##волнова
простые
придумать
убиты
гени
##чивый
World
просмот
крупным
Аркти
##ous
присутствия
##струи
подписы
сры
носил
##ликов
осуществля
концепции
реальные
изданию
##ign
помогают
населением
побольше
специализирован
величе
вступления
колонны
##стети
Северный
боеприпасов
вначале
стрелкового
Солне
сана
дворов
обстановке
ирак
всемир
##каче
обещают
##стребо
пользуются
##вающее
депутатом
зеркало
##товым
##28
чувствуя
небре
1916
Сток
реализовать
##ey
туалет
расстрой
набрав
дворце
##федера
##ks
Второе
перепол
золотых
шест
сообщество
взятки
##бав
певица
миротвор
внешнего
студенты
##дарь
пожиз
протесту
Произво
позволила
##гивая
ЖКХ
Лиге
##воем
Роза
заканчивается
науке
совершили
Представ
Паль
Мутко
Крю
тва
недовольство
стадион
опья
##евой
клавиатура
комен
плохого
занятий
##был
допи
выставке
фразу
##aw
культурного
градо
##ings
противников
навести
обман
##феев
##щину
проин
et
##ev
развиваться
полицейского
губами
МГУ
счастлив
технической
похожа
##хонь
##ould
полуостро
выглядела
##НЫ
док
структуру
##вного
##спотреб
Коломой
знаки
Отлично
выстро
сквер
##чуть
##леба
Сур
клави
Русская
животные
Пётр
формирование
уку
капли
Война
УМВД
##ковое
помогут
присутствует
паспорта
убийца
эффективно
приказу
квалификации
пропу
неизбежно
китайской
росту
победе
сперва
одежде
выка
Медведева
возникают
сада
Post
##говорили
разработку
утверждения
##дность
##стность
Вашингтоне
завоевал
запя
##сети
понимали
##рике
подкреп
##гало
Звезда
##дский
##океан
внешнеполи
##ливать
популя
Голова
Жела
подмосков
библиотека
Ростовской
реже
бред
Василия
воров
##лицы
находящихся
сынов
TV
приду
пова
высотой
новогод
Гитлера
общественный
##комен
##страя
##хнуть
##изм
потерь
найдены
вовле
BBC
продолжит
обеда
странам
исключения
украинцы
засыпа
сумку
побле
Количество
Край
закончится
мерз
Собра
акку
товарищи
целых
обращении
Первого
исчер
Ser
подпись
##нутые
Изначально
Рен
горожан
отметив
Джесси
окрестностях
товарищей
Or
ФН
Роспотреб
##чивая
сино
десяток
приток
настоящие
мероприятие
проблемами
укрепления
Ind
дворян
бессо
согласились
##ведено
называемый
Президиума
##мик
яс
##верии
освеща
военными
предложений
травы
##сериа
##ann
##________
Хорва
Малы
показывать
данными
дно
поступила
Russ
##дини
Бран
нарушением
предан
##ans
пищу
##тира
медицинского
роты
замену
привязан
##читал
Худо
клеток
взглянула
лучшая
проведена
Валерия
отряды
Нидерландов
фактор
спецслужб
ансам
приложения
нарушении
беда
Анали
скрылся
применять
препаратов
важнее
вернее
заслуги
пропове
уничтожения
взяв
наращи
федеральных
устреми
Рэй
##явление
##слы
содержится
грив
послан
##тоном
принципы
снизу
сирийской
Вполне
Неве
привыкли
помнить
##ath
Псков
Пенси
популярность
1912
Тэ
квартал
кадро
дадут
поощ
трей
трассы
дизайн
уведом
знание
забыла
пропаганды
первенства
водителей
извин
##способности
некуда
династии
гибель
шутка
награду
выбрали
##фра
поехать
##гуляр
пехоты
##ворец
хороших
пистолета
##чило
набе
рекор
охотно
Напада
Джули
засто
Тело
паре
штук
реальных
лорд
Астраха
On
##тип
четверти
нею
изменилась
##емуа
бессмер
станций
Владислав
многими
метрах
игнори
собою
перестре
повсюду
Гитлер
махнул
вак
изго
народный
придумал
взглянуть
каль
заработать
##экономразвития
##36
силовиков
раски
горно
Associ
объединение
преле
плану
льда
товарище
русски
Слово
белым
признает
резонан
активисты
Симферо
актера
добился
Гля
знакомства
стражей
##сті
пулемет
производители
исчезли
полутора
сложных
##жила
нетерп
облига
Апо
пользователь
##полит
Рой
отчаянно
Фернан
Испания
бетон
проголосовали
темные
образа
секс
предложением
перевода
написали
проводились
Рада
экзо
открытый
хорошую
##нас
Мисси
знакомые
имеющих
проблемам
Финан
пойдем
##альное
Францию
хранили
полагаю
историк
исследователи
становилось
теракта
##ИЙ
играла
##тано
разобла
участвуют
запрещена
двинулся
блин
востока
принятие
совместной
##тека
столетия
следователи
Финлянди
крупной
Достаточно
человеке
вклады
##говых
Минск
Зам
Каталог
добрый
ценностей
Кора
праздника
Информация
##шара
Sky
входила
соответствующих
сертифика
террористы
##ливый
сооружения
всём
##ладель
##стический
##динами
колю
Стэн
маленького
##стяза
##бола
ошибо
супруги
##ДС
Боро
Эх
постоянного
заса
Ква
опечатку
Дерев
заявив
оставлять
##заи
итого
выбраться
##НЕ
левом
##бие
уставился
Южного
завершился
дыма
##ины
Хро
гит
Предполагается
площадку
тун
Дверь
уйдет
ведущий
Руководство
клиент
ключи
##ристы
рейтинга
##рующий
##надзор
вызывают
##сово
опира
рис
едет
сообщали
дочерью
It
держаться
жертвой
##дрой
Свобода
небольшим
##ць
обога
готово
повсед
подор
предписа
Лиза
требованием
СИЗО
черепа
Известия
##кнув
энергия
Мах
подконтро
##нён
##пыт
негром
шестер
голод
##льна
Проце
Средний
ходом
##fo
просве
кавале
1910
Ясно
##вим
определенных
Основная
преувели
мекси
изыска
реструктури
Друго
155
весом
переданы
флага
выши
ОН
любитель
детские
вошёл
участникам
официальные
жре
перечис
Леона
поцелу
друзьям
занят
ехал
##цикло
Gl
##спешно
кодекса
##ёшь
коллектива
спецо
урожен
отправилась
Джефф
мэрии
горячей
специализи
##кину
##нейшим
Эндрю
свобода
немножко
малых
##скре
объяснять
комната
изъ
pro
Скажите
рель
рассле
норман
лиф
Рязан
зажига
вперёд
нагре
секторе
дерь
174
согласны
подозреваемого
скорей
ФБР
коэффици
##пур
льду
ежеднев
Рубин
войной
действиям
##паний
Трен
видне
родине
Курга
коленях
призван
танка
##куси
##меном
Господин
##тует
##ппи
##Tube
##ровь
использоваться
##вке
##люка
##нче
ребёнка
сыграли
##гат
преры
давлением
Минэкономразвития
отпеча
гарнитура
сомневаюсь
народом
Плот
участником
пропал
##ури
##лене
ТО
адап
ожив
кардина
отво
##Рє
Пов
занимают
обстановка
религиозных
Южный
каба
кван
надеется
происходящее
##точку
истины
криста
##тивность
зре
предварительно
останутся
ополчения
берегов
легких
Дву
полоса
средних
Призна
сформули
въезд
появятся
баллов
ночной
текстовую
##ium
минских
грамо
командовал
##МО
третья
Является
##трополи
##жане
Кого
предстояло
терактов
активы
her
осуществлять
госсекре
подруга
##стке
##зовой
Константино
выкри
нажа
165
заслуживает
##риз
предд
включить
получился
режиссера
Ману
переры
научного
свободе
заим
алгорит
всевозмо
##чкин
СПб
сериал
возникновения
учитывать
заявлений
пятый
подобный
безво
коллектив
##чику
##жков
напряжение
ЗА
гейм
Директор
##тской
Оренбург
культура
выступила
преступников
продела
исключение
Лорен
твоему
##ковом
коню
приближа
##чикам
свободное
десятилетия
##юка
Оскар
северу
обработки
Торпе
гнез
закончить
вечеру
Саль
племени
бывшие
цилинд
атаке
личное
Журнали
соприкос
##ёте
относя
галакти
помещений
YouTube
шпа
неправ
предотвратить
долгие
Daily
марок
Горо
##olog
Верно
Пушкина
Убий
посёлка
фильмах
Бит
транспортной
##ваемый
континента
ритуа
Юр
##поло
увидим
Начи
##РК
Героя
##енном
мощностью
маленькую
использовались
аноним
Нина
Отве
Турец
граница
чувством
ког
жалобы
##тета
##вывать
тайну
перешла
Сибирь
##дье
Государственного
казалась
обвинил
Ер
Расстояние
Кремль
Стен
Куй
придётся
передвига
крупно
методов
##жемеся
аккаун
фило
суп
назвала
законам
грузов
пальто
сопровождении
Красный
заявлением
##сскую
задолженности
Бабу
Мала
аро
огромную
##пкой
сложной
консоли
разглядеть
Амур
Симо
Досто
устроил
корей
Западного
from
прорабо
нехва
##лизма
пояса
доставить
коем
объяснение
##канец
pr
Афганистане
##au
пешеход
планета
Греция
Ливии
нравилось
Административный
Единственное
физически
фельд
##чатые
силовики
Рек
закрыт
Четвер
благополучно
присвоено
##34
повседнев
интересом
Необходимо
плет
Бес
рекоменда
урегулирования
огнестре
принципу
шотланд
обсуждали
политикой
##коп
iPhone
Вспомни
воротам
даты
сегодняшнего
оперы
ук
фоль
ключевых
проживает
##очеред
im
утвержден
сильных
трети
целая
Робин
##стрии
Колумби
любому
передали
атмосферу
набо
доно
##роны
отказывается
##няв
предполагается
аква
подсуди
зау
деталей
грустно
фур
саммита
беру
давая
Перси
Увы
Выступа
##таж
вступить
##четов
##нялась
забывать
поддержкой
епархии
Начина
экспози
##дилось
Число
варианта
##тиками
каб
##ною
##емчу
кля
возможной
##ряду
Шарлот
инвестиции
##bo
Госде
HEX
сухопу
Иерусали
##довала
##водили
Севастополя
бумаг
me
копе
специальности
Флори
соблюдать
транспортного
медицины
распи
Кадыров
вене
Роско
вопросами
Село
туризма
повели
линий
Хосе
изделий
Яна
муску
способы
Пой
мадам
рога
захваты
##торий
##ид
проживало
торопливо
схемы
требовалось
Патриар
Камчат
##ll
повернул
определяет
Фрэ
тротуа
умеют
ган
расстро
важную
сотрудникам
ED3
UC5
##ната
Навального
##новые
специалиста
мосту
латы
##щев
массового
##ловский
пропустил
заявку
оператор
Пей
##пресс
рекламу
могуще
144
ближайших
национальный
магии
полицией
Мисс
##энь
характеристики
Внутри
орбиту
углуб
остановки
черта
##ія
сможешь
симметри
Токио
Владивосто
ловко
полосу
указано
подозрения
Cor
Справедли
противостоять
##союз
##стился
Правильно
##сион
невыноси
##сый
##тимо
##рел
предметом
органа
##весть
Мати
##тством
##ТА
упорно
джентль
рожда
разруши
Здравствуйте
##дира
Слуша
враги
сердцем
потребления
Ирландии
##совые
месяце
Шара
лёт
общие
предварительной
слышу
меру
фамилию
##стерои
цикла
занималась
подозрению
подто
обсудили
##емому
инициативы
зафиксировано
мистера
##ллера
##ттер
заставили
футбольный
считаем
коры
осуществить
взыска
##гун
разрушения
выгодно
фавори
Тверской
##жество
115
Абха
##ary
созыва
оставшиеся
страшного
переми
амни
рюк
иным
застря
##знец
отдали
приятель
сервис
позвонить
Маха
убитых
комсомо
просты
предыдущего
вирус
##товая
паца
имми
почер
нагля
##мь
1500
странный
Анджеле
ожесто
Як
приш
разыски
##РЕ
##диоз
живым
Вид
##ics
велика
удобнее
##ковыми
радиостанции
Александром
Рак
Водитель
##чука
возлюб
пропор
отс
Вслед
##бон
колено
большому
##сман
королева
вертолета
##крепить
добавляет
прямом
смеш
гостиницы
положила
Элизабет
##точных
Пошли
растут
младшего
простым
вычисли
##ево
сильной
расстояния
училища
Звез
лекции
##юми
большеви
отзыва
оператора
заключенных
лету
жителями
отчетливо
дурак
Александру
пламя
питер
Теха
##ota
кроше
недопусти
кинотеа
##чьего
##unt
получении
раны
бедня
поблизости
присоединился
открытом
позор
##ier
мучи
выделите
британский
##керов
Партия
Начиная
покоя
приоткры
гвоз
##шках
##цена
натя
судебных
звука
Аза
кише
квалифика
##евым
1900
Думы
Донецк
изучать
Неожида
импер
порно
плащ
столети
ПАР
пытаться
дано
прописа
участвует
##здно
Иисуса
##чур
##гги
гет
Машина
ученый
преимущества
капи
утверждение
Офи
Дзю
закрыла
страсти
докладе
Поги
отчаян
предположение
Европейский
##рованными
заговор
##26
окружающих
##ностям
антитеррористи
##ида
Стру
##рований
мнением
изделия
памятников
Абсолю
Ульянов
случиться
сравнительно
пользуется
абстра
действовал
##льников
##лека
переза
##зоны
##уха
##городи
Транса
International
глубины
Зим
Всех
аспи
своев
гонке
согласиться
признания
разду
##мі
параллельно
направлений
##валов
зата
теряет
##att
осадков
придвор
Иза
печально
Пойдем
организаторы
развивается
женской
элемент
Марти
##льских
арене
Бл
эмоций
попросить
бормо
императри
природа
##тинента
Роджер
Ави
нехоро
старались
жестко
азиат
должностных
персонала
оттого
лауреа
угрожа
активное
сделаны
##взо
Марка
моментов
рито
колеса
дрожа
зашел
круто
заки
вытес
последовал
##тары
ориента
Ближнем
##шней
знаменитый
##колы
##бова
страдания
Людови
ОК
низкой
Мю
##27
Португалии
интернета
##жился
обмо
схеме
смотрите
тайны
платят
дополнительное
##жечь
##зни
##жками
##тир
телевидения
Харьков
развитием
##щине
привер
телеграм
талант
коридоре
##ict
твоим
заявлению
биатло
##ЭК
##сать
##снабжения
154
законопроекта
перси
поступает
##вичи
##байка
центрального
неужели
перенести
субъектов
Дональд
натк
продолжения
##хослова
сокру
Воль
ленты
столкнулись
спектакль
заде
##90
повторить
грузи
кухни
Пана
Управление
крыше
обстрел
##мовой
##ронен
Украинские
##лём
птица
интересное
сложные
расположенный
##щалось
мрачно
независимой
Бла
ярких
Pl
поставила
песок
планировалось
жалу
##фонов
обвинили
кабель
грязи
приглашение
протянула
красоту
водя
покачала
##ler
Арсений
делится
Василь
взволнова
технические
газету
посадку
##честву
колхоз
европейского
Фро
магазинах
Клинтон
казах
школьников
Газете
реального
обнима
Sy
Мара
##uro
кустар
казан
взлет
поединке
реестра
репети
священник
третьим
Попы
##ющуюся
условиям
содро
уязви
фраза
сообще
##зают
деятелей
##совест
дошло
принципиально
услы
Ил
Михаи
Кремле
китайских
оккупации
испытывал
Сирию
Генеральный
перевозки
заняты
свидетельства
повлек
##бже
подняли
en
привиле
мексикан
родителями
##бко
ирланд
твиттере
фотографий
БМ
Реал
ня
куча
амбу
закончилось
хруп
ничуть
Черномор
статьям
##ьева
##нутый
девушкой
капу
улыбаясь
##станция
ора
становились
##оле
бюджетных
микрорай
кухо
##ённые
хе
##eb
претензий
привезли
элит
##домости
лбу
толком
успехов
Навальный
приносит
подтвердила
##говоры
##ical
Эмма
последующие
##кратный
стабильности
мужу
рекомендации
функций
ере
##джу
балло
проектом
атак
##рею
##St
преддверии
выходили
Пришлось
статусе
ввели
пролета
кредиты
Анастасия
мяс
уми
столкнулся
организовал
неадеква
лега
делая
спрашивал
##нины
Гиль
включил
горю
##жив
нало
напряжения
Бос
вынуждена
Гонкон
освобождение
необходимое
Полтав
##oug
нынешний
Коммуни
нервно
##шусь
##стет
ВМФ
Цу
##гена
участках
видны
присоединиться
вырабо
##жному
War
##шишь
Захарченко
Индоне
всплы
##ёй
##баев
Дик
режиссёр
угрожает
Энн
непред
##шались
обманы
профессии
куски
наполовину
транспорти
патен
##коле
бутылки
кнопку
гостиной
Торпедо
перевел
девочек
##листы
собственному
фотографию
учета
Вил
совещание
оценка
осматри
выставка
неофициаль
надеясь
##нские
юридических
травм
принялась
Мила
московскому
Sport
армян
отделении
действовали
произведение
называемые
##ance
мотиви
##городе
##шийся
Сью
подождать
эфир
экономически
##чеством
пленных
близости
##гиня
смело
расположение
preview
##ландия
запечат
добавив
замке
иностранные
владельцев
пунктах
резино
Причина
##чание
##катастро
предоставления
победителей
выдать
оставшихся
значительные
брал
выразить
точке
прив
соседней
оптима
красных
Гви
переходит
учено
##чьих
Севастополь
Росте
HD
инструментов
оказывает
Информационные
Мадри
##авто
фыр
нечи
бизнесмена
гряду
Боюсь
познакомиться
слия
Израиле
подойти
сравнения
уничтожение
воздействие
спит
Госдуму
жёст
взялся
налога
выполняет
вывел
съемо
выиграли
пришед
сказав
##щимся
Шотландии
престол
убо
достать
##ненная
ушах
применением
МА
состояла
Электро
открытых
##ловым
контакты
##ьями
завеща
Днем
Женщины
##фли
толпу
приписы
родителям
##нином
Лью
травму
противостояния
##хма
большего
золотом
мешок
##ностях
купи
поднялись
пятого
164
Афана
менеджер
потребности
Йорка
##ара
Специалисты
вопросах
голосование
##ложив
сворачи
создано
##ствую
женат
решился
мокры
кричал
отрази
брифи
песча
##вязать
XIV
солдата
рыбу
погибшего
раунда
скажите
##ол
приобрет
исторический
выполнил
следов
пояснила
политическое
мечты
мужчиной
канце
вдохнов
##ink
подобным
плечу
деревен
инициатива
Фели
меняет
соседних
бельгий
наверху
иера
рядах
московских
храме
##ёк
подготовить
производить
полетов
причастности
преподаватель
##спокой
подтверждает
предположил
познакомился
##лс
пиджа
группового
Иоанна
Товари
стук
безза
выяснили
гражданство
рынках
колоколь
взросло
известная
происхождение
писем
боев
Сердце
водного
беседе
эр
монта
сплет
##валил
расширения
Вороб
красным
ГК
Результаты
Разви
безработи
##льзу
##мура
отом
##лга
тренирово
покупку
размеры
прилега
эстаф
малейшего
митрополи
купо
вызван
##DEO
полученные
сала
компетен
требовали
удивлением
эксперимент
##разум
##дство
экспертизы
утверждать
задержанных
##дуется
протокол
получило
вправе
Должно
##ial
лекси
заподоз
кружи
постановления
##прыгнул
##дением
телевизор
##строения
коля
Организа
калибра
туск
счётом
приготовления
барре
будущих
маркет
##дном
Рафа
Степан
дефицит
##лама
расширение
##имён
думая
азербайд
##гового
##творя
ежемеся
Придне
Гэ
##ровый
просьбу
типов
предлагал
списки
запуск
##виз
способствовать
ден
Алиса
##дарю
весны
подъем
историей
успехи
принадлежал
Life
необыкнов
Времен
договари
вокза
водоро
приход
перестала
дышать
значительное
агентов
открытии
##меда
модернизации
правоохранительные
полотен
уступил
Главная
##лёв
налог
включены
делаем
##ненной
водных
канику
Представля
слой
вспоминает
Рау
Книга
##мий
##ейсбуке
захвата
Прибал
##щаяся
КГБ
потолок
соответствующий
##сится
##нде
XII
Тимошенко
формат
летать
административных
пояснили
композиции
абонен
Окса
единицы
поско
кампанию
##хождении
разному
руководя
уроки
полуострове
Богом
контен
странные
лив
полку
означало
Заслу
##кара
самолёт
востребо
бывшим
MI
масс
зеленый
Кличко
легкие
усер
длину
поединок
рамки
спутников
небольшого
сентябрь
жюри
волнения
##рут
госпожа
соперников
подростков
ОПЕК
объемы
инструменты
предупреждения
Габри
атлети
##некдо
##нков
##изо
сознании
Нафто
американском
дати
реализацию
желанием
покое
##жене
существовало
полки
##ёров
характеристи
поставку
##зантий
имеющие
гость
безнаде
собрался
математи
дур
читателей
правды
Смерть
побежал
Каким
королевства
движений
обстрела
##редка
экви
колосса
##ari
главнокоманду
стациона
плодо
восточных
подчеркнула
##сительно
вспоминал
потерпел
##креди
сфо
##лией
риска
##лтан
слю
сменил
цивилизова
##флек
выступали
боевого
зарплата
собеседника
основное
обыгра
заработал
разума
оскорби
переходе
изменился
судебного
had
прочитал
АО
представила
напали
определенной
обстановки
надписью
лежат
Мое
эстети
кармане
кава
Украинская
Сид
Принима
виски
Мали
Челябинской
ага
неста
Fin
левый
японской
устрем
учет
великоле
задержания
Ожидается
##ленному
##деры
##циклопе
##рской
##тнее
Лента
объявления
изучал
просыпа
ценность
живёт
найду
моё
Пон
сбил
##чивости
единый
небы
обнаружен
##лером
контролиру
инспектор
Зво
##менять
##les
бля
тетра
##некси
антироссий
кафедры
##ссейн
помнил
Man
урод
воля
носят
##зве
##хание
государственном
конкуренции
досу
Единственный
Дуб
пада
называемых
проснулся
шутку
приняло
сол
##юзов
требовал
возможностью
Посо
белыми
отрабо
пута
картине
опроса
безот
крышу
ін
расположенных
##зовый
##гиев
доспе
природных
прессы
тайме
понравился
##пион
##ory
##тос
летию
Тяже
1907
внешний
Быть
спутника
разницы
РФПЛ
##мие
##orm
замглавы
##способность
помешать
родо
больной
##son
красивые
цари
глубже
номинации
##ненного
захотел
##терей
опасных
представляла
##гуш
Цы
риски
штабе
короткие
серьезным
проговорила
Ближай
отправлен
листья
зары
почи
магазины
учений
Знамени
##33
турнирной
##СКО
духом
Фонд
существовании
соображения
балли
##тут
##чься
действующих
носа
Зло
католиче
посоветовал
ур
советы
загляды
Следует
каю
Наблю
##новка
VII
общежи
выры
Эри
блог
изнасило
спины
Жене
цепи
Испол
яго
табу
Сор
окружи
конкретные
разного
Пси
комплексов
Пись
научные
помощника
ботин
кок
гостях
обостр
здоровью
##зоре
синх
тяжелое
##сором
Сум
штрафа
частях
президентских
инспек
милости
хоккею
##пустив
футболисты
Одной
ожидали
Следственный
обезья
наблюдателей
Пользователь
бизнесмен
РѕР
##ital
##жам
Канаде
Получается
правде
мощным
Македо
правый
##тировали
Гости
##менный
Солнца
Зака
равных
Англия
грандиоз
клят
Деба
вцепи
охране
несут
##фора
воины
##вающихся
##дино
##дда
подчеркивает
открыты
Южная
Андрее
установления
##ционера
пооб
##бн
поверил
районный
##сталь
Луис
золоти
донец
уважения
##мино
эквивален
Капел
животного
занятие
##думал
трамвай
##матери
беседу
прочитать
##тинского
##губ
референдум
Партии
##циал
Екатеринбурге
поехали
ужи
сохранение
будущей
послышался
##жило
окружении
Тюмен
сыграла
##дям
отдавать
Юра
дефо
уговори
прервал
##численных
белая
землетрясения
##тела
разъяс
месторождения
трансли
##гивает
##альная
Словно
Нару
маршруту
##дитесь
Секре
взве
отнести
доса
сели
##co
##чатся
Масса
выжить
борода
локали
##евича
обменя
Социали
##гара
встречаться
стиля
наду
стражу
окном
##ТИ
хохо
ширина
вмешательства
Башки
недоум
являлись
четвертьфи
заставила
##жени
молодости
Comp
прохождения
эго
опубликовано
нынешних
закрыты
Краси
Трансаэро
торговле
Яко
уважение
Арт
##жание
желанию
английской
Brent
реформи
Себа
приобрел
Stre
объясняется
Республика
Музыка
осуществления
фан
погоды
уклады
разгром
черная
одноимён
Постоя
заявляют
Брон
революция
родитель
аут
разговоров
Оказывается
Роберта
##словия
слух
грузин
##марк
транспорте
##йка
падали
лестницы
Давы
##дется
Аре
переселен
чужие
##фре
Прокура
старшим
погибло
арген
##agram
Народный
Работал
Губернатор
району
##лор
Абро
дипломат
обстановку
структу
устал
наки
снарядов
звёзд
##жества
зату
гарантии
добавили
достижение
нагрузки
совершено
секретар
##линский
##але
Бир
клиента
##экономи
Буда
приступа
пшени
мозги
Самолет
##стские
Охо
помогал
светя
останки
Вице
научиться
дату
окну
повлиять
открывает
коммунистов
напар
свеже
подба
говно
хозяйств
режиссёра
огромного
##лово
Рыба
девай
узнав
свин
мону
арте
стиму
нейро
украинскими
черте
живописи
королевы
превратилась
белом
Честно
мелко
коли
##НА
заго
силам
направлению
стоить
##ЛО
Уд
агента
оставляет
целое
ланд
подала
обрабаты
Меж
чужих
отмены
##кону
##ложении
неважно
Старик
подразделение
сделав
целые
вылетел
билетов
сми
современный
##дности
оха
Указом
государстве
1906
выплатить
##коснов
Дро
тесто
##смо
сухой
Малай
VIDEO
Игро
спецопера
спрашиваю
освя
##тинский
правовой
##29
Канада
бродя
##кварти
##переда
духовной
Замести
Ветер
идее
оператив
Югосла
XIII
Трудно
поездов
древней
Подробнее
изоли
уще
высказывания
тяжелым
##хватил
Давид
##дием
одиночестве
Лаза
диалога
физио
компьютера
едой
Fl
представителем
венти
патриарха
Комитет
душой
приходил
поликли
регионы
недоступ
##дины
государственным
крупном
168
##нута
дорогие
##тормо
похожий
##ams
##электро
##ничества
засо
Всю
казались
Американский
умел
Нали
Вести
зверь
пользователи
покупке
обвинению
##ленность
##ваемой
древне
задания
несправедливо
поступили
духо
трансляция
бюллет
сотрудничать
выступлений
подтвердить
взглядов
##циоз
сторонники
астерои
##эна
Санта
обычным
Дженни
выстрел
закономер
обещает
объектом
шей
Приднестров
чиновника
рассматривается
подали
##ИО
уходя
времён
печать
надзор
##паться
федеральный
##бородок
Месси
центру
Данные
ладонью
иностранцев
1911
высе
Центральный
вылез
проволо
Индия
возможного
Соф
Волого
старт
аудитории
армий
##orn
Главным
Сино
Тбили
##вени
наряд
взаимодействие
поиграть
погляды
##шк
комби
сгу
страниц
частные
Георгия
предсказа
посещения
рэ
посадки
нава
собственными
спортсмены
Хватит
массовые
интегра
ехали
нагру
Лоу
парней
помните
скором
Вики
диван
Брюсселе
Федерального
Аба
разбо
шве
##нс
гору
Кеме
состояться
губернатором
Ску
проявления
скалы
подписать
чая
родов
Подмосковье
консер
понимаем
цикл
работающих
сора
##сиа
##точные
шеф
Прос
впря
##города
##лины
Анжи
верят
подтверждение
факе
великих
самопровозглашенной
Ночью
зайти
ноут
Режи
Ронал
##38
проанали
##падение
торгового
бил
##шелся
Journal
##метра
Атлети
простите
разбро
##миль
Завер
симфо
разгла
##щенным
структуре
серьезное
##ченность
печень
Изу
Федоров
изменится
##ction
всячески
Rec
##кис
158
сравнении
##гистра
капель
##честь
заключении
дама
167
Мура
коробо
Петербургу
Ag
Ибра
##линского
Чан
готовит
железнодорожной
Пин
тренировки
ярмар
выехал
квартала
1904
впечатления
Кино
одиночку
респон
Стамбу
Жю
опрошенных
аннекси
кай
точности
способствует
ветви
проведены
пьян
Еже
Давно
ноль
##щенное
представляли
просматри
##УР
бедра
пользовался
сдать
целесообраз
неприкоснов
NAS
##ствующее
засмеялся
ядови
Монго
поймет
российскому
##нилось
собственном
прищу
##нева
Криш
поспешил
Уильямс
рынки
Вьетна
Будучи
##читать
Муха
##летки
коллегами
насмешли
метрополит
Кома
Фей
Иор
##37
нахмурился
человечество
распозна
##клика
расположенные
##кологи
бюрокра
нормальный
Независи
##меся
обстрелов
агра
##ФО
Увидев
Наташа
проживания
запрета
утили
450
фразы
Вор
##фестива
незнаком
объявить
##own
поймать
образован
##масштаб
Имя
промышленность
командующего
Тель
направо
Киеву
Корпу
##гю
##нено
##ленности
##ходятся
грязь
славу
##рится
##мм
##клу
дизе
доверять
уверенности
Костя
сиденье
мужчине
сверка
граби
##дование
перерас
##плет
взно
ведутся
юрис
бока
##вающую
##даре
##ake
Капелло
Associated
Кэтрин
Новое
побывал
Ed
дон
лого
знакомы
приоб
##sport
спут
##жег
глубокой
##льны
богатых
исправить
сосла
##фет
##курс
плату
чтения
Подоз
версий
спрашивать
Россель
##снул
вока
изобрета
колы
##вным
появляться
подхода
##land
##вешь
сделаем
Наза
периоде
##ИР
премь
козы
механизма
коррупцией
Лучший
аккуму
##хоньку
вокзала
создают
женского
##хнули
Mus
Руслан
показателей
жениться
получалось
разга
Рє
##ree
Институт
изучение
нанесли
анекдо
улучшения
Джонни
павиль
Багда
отменя
командующий
пакета
ненадолго
поединка
держали
триум
рассыпа
Помню
неизвестные
полы
влады
##шня
купе
##венно
##чике
##стине
##СН
Билл
зависимость
лучшую
глазам
офисе
геноци
боялась
##йского
превращается
##минал
надежде
ща
правосу
Соколов
знаков
##weet
британских
брату
Mail
чистый
установка
ручку
хуй
предусмотрено
пулем
займет
являлась
Прибы
ярости
кредито
молодежь
##ert
Олимпиады
легкий
воздержа
Мальчик
затраты
облака
батареи
##жском
просили
борта
совещания
некоторыми
Пои
Крон
##ницкий
урегулированию
освободи
##енькая
166
жид
укро
##сина
отсутствием
##ложены
##шных
Мосгор
Соответственно
легали
городские
усовершен
освобожден
списа
брез
железо
##неров
предполагалось
обря
погод
##ська
фирма
сомневался
барха
порядо
Гоме
Par
выдал
мячей
НКВД
отметки
преследования
Браун
PS
##гс
My
диспет
стандарты
пронзи
Софи
всякое
##чайно
женщинам
фальси
комиссию
выдержал
Сергеевич
любителей
##серов
удивилась
чёт
Серебря
отвечая
налево
водки
ювели
форум
лишнего
рассказывают
шага
дьяво
личным
затяги
правую
альянса
управлению
подбородок
Московском
сопо
сунул
сказки
предков
охотни
кадры
преодоле
Чен
партнерами
настраи
Cсылки
лондо
существ
##бью
мунди
##стит
Револю
щеки
##цкие
Металлу
Эдвард
разбе
Сказа
Хали
черту
иу
поморщи
##рони
бары
контактной
Азов
##ux
сельский
пожаров
неприятно
Матви
указания
пациента
спутник
разнови
кошмар
учебного
##edia
вселенной
встречался
усилить
##гите
прямого
Буря
завершил
##трибу
холодный
соби
##стовой
домохозяй
Чили
попе
##стор
Gen
Реб
##торое
уточнили
Забайка
##монов
учителей
сестру
ĐľĐ
крыша
мечом
оглу
##воя
##пределение
недоу
обеспечивают
охрану
##sk
##нителей
торжественно
признаться
глот
Брук
имену
платья
##тине
Константина
ставка
каранда
##вання
уголовных
продолжаются
отставки
рака
основой
федеральной
процедура
аналитики
Цена
Ворон
##делить
выпустила
стрит
куби
рассказы
пятидесяти
##заны
атомной
преобра
костей
##atch
##сио
Посте
##ena
двадца
четвертого
Лена
мужество
хозяйка
звери
вскри
милая
доставлен
Владимирович
Дья
##ав
##По
уровню
Шевченко
Быстро
Дави
королю
##шенное
министерстве
Пак
##валился
Кля
сборник
имеете
Парк
КА
платформа
восстание
##ove
##af
заложников
эвакуации
искали
вершине
психологии
Текст
##нове
##ничать
низкий
1908
Капита
мифо
надел
курорт
Клуб
предположения
дифф
следующую
информационных
Елизавета
расширить
покажет
евреи
возбужден
возглавляет
Православ
##крити
официальное
работах
знаменитого
сооружений
растеря
Фактически
Судь
Аналоги
вера
окраине
доступен
плац
заменя
собаку
веса
дальнейшей
##чите
епископа
юбилей
уточняется
истребителей
помнит
Матвиенко
подво
Петру
##мально
очу
короткое
развод
злове
накоп
церк
персонаж
покупателей
снизился
Дня
убийцы
больного
самолёта
продал
ток
дыру
заду
последовательно
##any
##зость
временного
бумагу
продолжая
##шё
речной
близкий
грех
гни
парламентских
мышцы
Миша
##соном
боевиками
проблеме
конфликтов
сложный
Св
аксе
защитников
Курс
придут
иллюстра
сильная
##дида
##численные
русскими
болельщики
Фред
покрасне
встрево
ласково
##чкам
##жника
процедуру
##вите
точкой
ОР
сочинения
промышленных
Рима
мусора
открылся
##up
сражаться
дверях
действующего
Сергеем
##технологи
древние
близкие
футов
##SE
Мага
Гео
##меров
профессиональной
##довая
##рьмя
соответствующее
бросилась
сменить
девяно
ох
##лочку
сырье
Турцию
Пушкин
высшее
несовершеннолетних
каш
Установ
шестой
основатель
торговые
партнера
задать
##радо
похода
посмотрите
##стона
конференция
считаться
реальный
кресто
торгу
Наталь
законодательству
замминистра
##ays
комплекте
встро
направлениях
##пустит
##гене
общение
документах
констру
Лек
обращаясь
депози
##стике
##сян
русскоязы
белору
Итали
##дзи
##льцев
родных
##прин
любим
ожидают
двигатели
ставят
Ассоциации
читайте
конструктор
углом
аппаратов
Уин
##СЃС
##талась
##вная
трон
Аркадий
партнеры
профессиональный
теорию
##тский
пилотов
график
высу
Занимает
домашний
арома
спаси
эскала
рубеж
живем
увидит
##тонос
France
библиотеке
стрелковой
поцеловал
Лето
Иоанн
салоне
##ступление
Начальник
построены
двести
Постанов
стратегических
Советов
еру
ути
свадьбы
приеха
исполнять
##сными
##тость
сделку
избирательной
направлена
сенатор
записать
Самым
Sch
центры
##рядка
зарегистрировано
исторические
русскому
Можете
охраня
декабрь
О'
##жими
растерян
производится
облик
##вань
мыслями
образцы
итальянский
противном
банку
Col
дико
Каждая
Кузнецов
Сбербанка
уволен
осмот
терроризмом
##програм
##ИКС
Шой
руль
Соро
зеленые
департамент
подруги
употребление
отмы
##щаю
штаны
##ode
##сторожности
быстрого
##ловка
языку
выслу
глухо
корни
##нян
солидар
реанима
запада
племен
пошёл
профессиональных
шепотом
автомати
Идея
довести
комментировать
питание
напал
пассажиры
привлечения
мышки
##тону
освещение
исполнилось
пропуск
местными
##uk
построено
Состав
Пес
##цет
гражданства
##лкин
серебро
Плохо
##щами
необходима
разрешить
##фильм
считаются
выста
гриппа
вероятности
помнишь
рухнул
адреса
Con
мышления
сделают
пригород
пятна
Барба
##онеров
короче
старалась
рабов
студент
помогло
предводи
национальную
прова
отеля
Корея
гражданами
петербургского
ездил
запустить
окружения
показаться
рассказывала
учить
стояв
старым
##шир
производит
##ставим
подарки
обоб
актива
210
репутацию
СА
Qu
основал
бабушки
капсу
священника
догадался
ранга
оштра
шпиона
заключить
почты
испове
джу
##венции
Локомотива
столичного
подбира
ребенку
брыз
слабость
##юрод
оказания
ушёл
порог
посадо
помогла
приходили
замеша
совершать
Mot
подбе
нынче
Государственный
Ас
благодарность
домашнего
##пай
##рующей
тяжелом
##колад
##ON
перело
прохлад
##ёнок
##ноу
Рост
##зового
врагом
принимала
мировом
##коне
Марсе
дальнейшее
простого
напомнить
народы
##зной
Amer
Движение
испытывает
захлоп
черном
##рованном
##рительно
гомосек
выпустили
Скан
компаниями
противотан
водохранили
чтении
Антонио
Арсенал
ресторане
Хим
опухо
##roid
килограммов
четырьмя
ощутил
вернусь
Красная
отражение
ветерина
Фрэн
продюсер
Иску
Стало
занимать
Людмила
Кав
открывается
итальянского
Русские
старается
бактери
##ve
##ханов
замечает
открывать
Последнее
глубокий
шайбу
разрыв
атака
студий
AS
границах
барон
##польского
куку
сохранять
взамен
Цеза
короткой
поэзии
электронных
Внимание
Instagram
предупреждение
Гонча
издева
##штейна
спасение
Предупреждения
##шуюся
##рений
переез
Шере
1909
Турк
##кине
##нейшая
выстрелил
Генрих
разбор
потребность
примеры
##ватель
##нгви
музыкант
IB
уходят
носу
любым
выпустить
дисло
скучно
вплотную
Каб
праву
толпе
Транс
Счет
Парень
ковар
противником
нагло
##тическими
Таня
хмыкнул
удостоен
Сера
нестаби
отклады
прям
поступок
советское
согре
пь
##тивному
определенно
коже
прилага
вдвоем
лоя
лук
неведо
алма
##rid
вытер
України
встретили
Восточного
Блей
Важно
сбере
позициям
вернул
Иисус
##стку
улыбку
##помню
ФК
упаков
фестивале
профессионального
ошибкой
вспоминать
##гори
московский
гнева
тракта
##рную
##рань
применяется
снят
Play
доставлены
серебри
Феодо
справился
огромных
заметив
зависеть
Иде
Скажем
##ведом
показалась
сравнивать
кура
отель
вакан
##зана
спрятаться
дамы
нужным
##вна
левого
Ели
Черни
агентством
Уэль
##стели
расслаб
будущий
Днепропетров
необходимы
сказо
Корот
##счур
##air
156
106
усу
##хала
пропустить
рейсов
выезде
##бол
ЮАР
целого
зубов
композитор
жалобу
бабо
передача
массой
инопланет
чудом
##чести
дря
исследователей
бота
Крис
прибре
халат
##енты
##дене
символом
Доми
издал
104
НАСА
запасов
Британии
##новил
подер
##тащил
подписания
рези
##рога
женский
ночам
увеличилось
мату
океа
арестовали
капиту
построили
Ювен
совмести
вузов
улучшить
малой
вагонов
кампания
##грузки
прямых
конья
патрули
##ger
аму
замкну
знакоми
болезней
##стина
засте
Осетии
##ждала
##мем
кинофестива
приговора
##aid
Кубань
Успе
случается
##части
учесть
противоречит
Профессор
сохранились
##довом
извините
региональной
##инь
##тавли
агро
##риал
распространяется
Мужчины
уважением
Рели
##тум
Фра
##моде
прошлым
позволят
Каж
Đş
готовиться
модера
ранних
придумы
опубликованы
сайтах
китайского
определенный
Старший
Уважа
Послушай
гибри
Такого
El
мобильных
оглянулся
московском
кнопок
Подня
анонси
Проис
выплат
глубин
протест
россиянин
диссертацию
Самые
бежали
заводов
##ничной
империя
убивает
Уверен
##летев
столик
##news
##mer
Роснефти
записал
Pe
московской
извер
хала
##ропера
связаться
потихоньку
##чивается
##енача
Христос
нету
скам
прибор
прорыв
извинения
Осенью
прокуратуру
тенниси
Законода
бытия
##живает
примы
уничтожены
роде
##мирие
врезался
справедливость
Обу
убийств
флаго
дискри
Кэме
готовят
Издание
щедро
ресурс
копеек
дозво
непросто
жестом
Мишель
##манда
образца
демонстрации
Пир
организациями
частного
делика
сомнение
почёт
Merc
полях
ведомств
Нобе
предъявля
невинов
повести
глубину
##зинь
проявляется
траек
помощником
сахара
блоге
торговой
машиной
противодей
моими
медсе
маленьким
##рассу
насо
Ски
сообщению
Гю
фигуру
состяза
сенса
##сского
породы
имено
##шится
дивизиона
природу
##магни
клин
следователь
применить
Гагарина
великим
220
прежним
приё
вда
наклонился
размно
##говое
находящиеся
приятное
Киргизии
боксер
##ённый
брали
проведут
контрата
призналась
выража
жалоб
даром
спецслужбы
Весной
ях
Боло
положительно
бесстра
Мурман
подарил
##рдо
Акс
позвоно
Me
##гими
арестованы
Соединенные
министру
##барго
совершения
несогла
##bus
государственную
примером
стула
ополченцы
##евро
необо
желал
опубликована
гостя
послать
шеи
нервы
нисколько
128
сиде
##чалось
коридора
Самая
выросло
химии
гора
достоинство
Телефон
ежене
коридору
недобро
антропо
позвал
делаете
##виса
арт
нац
назо
движу
умирает
очевидцев
Буха
Германией
##тоза
оше
миссия
забрали
Pol
Олимпиаде
посольство
##едине
третью
шиф
прегра
Похоронен
VIII
жилого
лик
Командир
учреждение
##зились
##клы
расцени
попадают
цензу
сервиса
лишний
попало
информационное
##con
Аса
отмечал
##жете
клавиатуре
украшения
добрые
давности
нормальной
баланс
петербур
космосе
поговорим
ода
ar
сырья
копейки
##салим
доклада
приводят
##вию
##игры
любили
шоки
Строительство
погреб
##спира
рабочим
ограничение
Вс
крыль
смартфона
Дед
островах
взи
считала
полеты
Попов
тихонько
интересный
##простран
трансфер
интересные
##льские
голубые
стараются
##чане
Мухам
гимназии
троллейбу
коммерческих
живого
кандидатуру
длинными
Пьер
Флорен
летнюю
##вавшие
Проте
##лита
эволюции
чертов
лом
Синга
двенадцати
снис
изгото
Следовательно
Шек
очередную
##хэ
подъез
хреб
убежище
##слож
дальнейших
##равни
##лите
169
украинском
Живо
Образова
Заместитель
неприятности
приятный
пользовались
напере
сложная
##ченном
Внут
лодка
Эпи
любимый
интуи
данная
рассте
западного
##шенную
оштрафо
гау
Đť
собрали
рефлек
проникнуть
##етта
дало
неохо
135
отдельной
рабочее
иностранным
раздела
просу
лучи
префек
изображением
##рыми
свободный
приём
Che
##риков
заголов
денежные
трилли
обследова
профилакти
дого
Ниге
тарелки
Победа
Гуд
севера
кредита
ФАС
конституции
##вказе
объяснили
обстоятельство
скрыться
уе
##йо
##ванным
репорта
##фик
Неожиданно
стеной
цено
##карпа
незадолго
осведо
прошедшие
##жью
природного
обнаружения
дум
бешен
беспокойство
Тка
лазер
потребовали
листов
профессором
чемодан
сара
##ner
храбро
кавалерий
молитвы
##ссион
забрал
балко
командиров
Сал
зерна
самолётов
гиль
Попробу
гендиректор
музыке
набрать
ближайшем
почве
вытяну
Трое
пули
Китаем
заем
заглянул
казар
никакие
Роском
таб
##гова
##дант
солнцем
произвести
Разрабо
Киевской
Коммерсантъ
артефак
интересам
чересчур
Одни
возможном
пункте
Пушки
АК
##дными
проши
снимки
Убе
добрался
способов
январь
вагон
##скали
разделить
рассказывали
пригласили
Мерку
колла
##ровича
баррелей
бывшая
статьей
дерз
##живал
компаниям
одобря
Марко
сладо
цара
глазом
##дди
теракт
монастыре
соседи
послание
Любой
ведущие
крохо
игровая
##орк
Впереди
обнял
резолюции
поскорее
Иванова
Слы
единства
Калифорнии
справо
певицы
##чевой
вничью
твёр
Эрдо
##таров
Террито
сказыва
фанаты
музыкальных
спасатели
старательно
соответствие
Вите
скандала
индустри
##цовой
##ренным
приобретение
событиями
Западом
негативно
критике
Ведомости
##тично
монеты
внуши
обещали
Матве
стихий
продукта
прогресс
принцесса
дежу
забудь
##ванная
##ward
длинной
неуме
скеп
##ФК
октябрь
уголовной
##39
Кубани
All
привяза
разбираться
аналитик
аспиран
пап
пил
114
аудио
польского
маслом
экземпляров
виден
##балан
предчув
продлится
давала
собрании
##ценко
настойчиво
предви
темной
приговорил
бейс
соцсетях
разработка
поляр
##нутых
##amb
ошибся
Аки
Таган
одобрил
движется
сало
вратарь
признакам
траве
МГ
отправля
##пает
понравилась
зимних
лепе
встав
схему
Программа
##ствиях
##укра
Луны
сердито
##чивым
умный
действующий
Каспи
Извини
атаковать
пошу
пламени
##степен
различным
ожо
устоя
Лэ
снаряд
западном
Некоторое
нажи
полосе
символиче
револь
конгресс
футбольной
мебель
желаю
приемле
Правительства
партнё
заставило
доказательство
##ненное
изредка
фарма
##гнули
факта
соприкосновения
##каться
указывают
##NE
Музей
идем
прай
Маго
матри
правого
Волы
поколений
фиг
Недо
инвалидов
Гр
Следующий
Работы
терра
пресса
##нанси
обло
предупредить
##РµР
##мбо
политолог
##кации
Энди
Кинг
милый
Екатеринбург
нашёл
признала
группами
зиму
похоронен
подми
переворота
находят
Ходор
траву
обслуживание
муд
Безусловно
ноутбу
##шние
важной
состоялись
индекса
обошлось
##товал
Днепр
Украинской
прежней
тайно
##рями
предыдущие
сумела
счетов
##пут
замечательно
ограб
Мень
морщи
папы
НИИ
погибла
медалей
вторжения
сень
земной
обход
различия
Кули
##ivers
законодательством
Водо
##ссамблеи
комитете
дошли
Open
##змы
Большое
китайский
##емле
токси
##ревич
##изнес
афган
измерения
обеспечению
меню
Коля
продовольствия
свободных
церемония
##FC
интеграции
подстав
надела
средством
##ike
##товского
обнародова
хулиган
военача
существующих
долине
##бс
Девочка
##знание
##водства
объяснила
любимой
центральных
##деля
3000
изучить
##говые
верхом
опустилась
силовых
построй
шагнул
урок
захватил
##row
##тонов
Вольф
последующих
Реак
##IF
Джорджа
юности
допустим
подозреваемый
##ода
##itt
камнями
загла
сква
Стюар
наблюдая
арсена
неяс
вызывать
Появи
высказался
значительную
потратить
бокам
##мят
левую
РПЦ
Ахма
родном
Хотелось
##чше
ситуаций
ваку
Гаври
беспокойства
административный
Джонс
займ
##стская
материале
называемого
поймал
прию
##цио
XXI
читатель
громо
считался
Сухо
воздушной
публици
Спас
отрицательно
исце
избирательных
##red
##новремен
порабо
Совете
##вному
Super
жилой
общественные
выстраи
чин
предельно
вспле
соответствуют
участвовала
##мешь
турецкой
мужского
Задержа
##uts
Русского
учение
Наиболь
проспекта
Лам
деваль
подписи
браке
вспомога
##ндин
найдется
прямые
правилами
##махнулся
ветром
##oth
соцсети
буй
157
Руки
комите
Пострада
неловко
##сового
##скон
отделе
мучени
эше
Глеб
поднимается
злоб
Восточный
тест
Предположи
галсту
реоргани
##бали
##нкер
игровое
зава
батарей
смена
решается
обыграл
##жоу
дос
упражнения
механизмы
следил
выско
сантиметров
##правы
местона
изменил
##ъе
телеско
Света
нравятся
пустые
лежать
ab
перебил
##TV
Вино
занаве
пробил
деревень
комфортно
описывает
прибытия
придумали
наступает
кричать
устало
Еванге
##динов
победила
##донос
числом
отрегули
##тимся
подозревают
населению
физ
случалось
##стером
особым
##риата
номере
будди
тарифов
пожала
Русь
Моз
кандидатом
близким
грабе
встречал
вымы
легким
дитя
перерабо
оппозиция
Видишь
Адвокат
##дрин
верующих
Казань
шкаф
персонажа
##ловского
безы
мерца
рефор
##тироваться
лекарств
слезами
Руководитель
забастов
##довым
территорией
новостях
адмирала
уступ
##рокко
CNN
отошел
ответом
активной
плоти
##ссоции
вдали
экономии
проживали
пытаюсь
афи
нуля
##ронто
боец
милосер
##топ
сё
##армей
##зийского
направили
ворон
##револю
забить
нью
мастеров
##ords
##нейшее
услышав
колонна
##зательно
Генерального
Хуан
заработной
ванной
нефтяной
Лоб
угрю
ужина
человеческий
Перу
рейсы
##пые
##говая
получше
обращается
##raph
изданий
##uch
##страхо
страсть
подчеркнули
Украинский
##кетов
сравнить
##ys
Тбилиси
костра
##просы
споры
дна
присутствовать
кредиторов
##маш
налоговой
опьянения
частиц
отро
Общество
##генов
миниат
##лично
##a_
форте
хранить
негромко
некоторой
##коть
саммите
страдает
Твой
##оса
лишним
суду
##здра
##метр
костюме
##тян
черными
зимы
шума
слабый
Прода
заведений
лап
проинформи
##ничестве
Све
##ткам
террористических
##ral
кормить
##рум
##хивая
##лики
Аля
##фицировать
##нутой
вах
Ть
мечтал
Культура
##ховой
лампо
оборачи
парази
Чо
твоем
Всемирного
атмосферы
воспро
мотивам
планету
завтрак
трансформа
Логи
затрат
##вичей
Либо
деталь
подводных
победили
клавиатуру
##мак
губам
удовлетворя
117
##тини
шну
##to
элиты
Вода
финансовый
Зла
обычная
кошка
наедине
нападении
описал
##чут
##ater
Васили
##пода
##бирин
раунд
передан
##дере
ядерных
ник
подтверждения
крыло
##унт
расшиф
технике
признают
des
обернулась
принципов
запретил
неизвестный
Car
##TI
прови
конкурентов
##ционному
##суд
Девя
Англию
холода
##кот
Эмили
Голливу
приклад
однои
безжало
похожие
##левской
принялись
маму
необъ
Монте
телесериа
уничтожил
превратить
эро
коллегии
равновеси
##рованно
Bank
Харак
скрывать
##шным
баро
эмигран
вершины
##гров
техно
##рующего
отсутствуют
содержанием
Крей
Кури
промышленного
Авторы
сообщало
строительных
родом
Средняя
Android
Ломоно
обжало
##уголь
IP
##сак
РУ
здеш
направилась
творчество
открытого
казаков
Университета
богатства
нефтега
рисковать
поди
предлагали
Вилья
недостаточ
мирно
заводы
Met
невозму
воспоминаний
Агентство
безобра
публики
116
возьмет
ткане
##рным
веще
имеешь
продолжила
встали
проблемах
увен
банковской
музыкантов
гене
##новый
##зором
уточняет
##правля
##ЕМ
##вне
##нность
мощь
металлурги
сделана
дискримина
выступала
считалось
современным
вступили
опубликовала
облож
сестрой
Очеред
камере
печат
километра
услышали
Марта
чрезмер
Street
мрамор
бросили
мемориаль
Кап
обращая
##минг
Аброма
##хватив
охрана
оду
мара
пыла
неизмен
Богороди
Меч
##знания
завла
закрыли
зрители
плохое
умерли
Дзер
разработать
##щах
административной
подхватил
открытое
##цких
обещание
неподвижно
Напротив
прогресса
she
товара
течении
##эш
быстрый
##нологии
Харькове
##ссой
кипя
Чехослова
анима
сингл
красота
ржа
Дебальце
руга
Истори
неизменно
городском
Обя
раннего
Последняя
обратном
бывал
пробы
напряг
##its
французов
##хну
человеческие
гостинице
муки
Гин
ВКП
Фил
She
Написать
124
национально
эмбарго
образованию
заявки
континг
шире
крупными
пятер
пальца
сохраняется
картинки
Другое
Инг
соверша
густой
Мал
Постепенно
просила
##зая
самолете
уна
страхования
сок
##танные
Cap
приложение
##рового
влюби
визитом
##ллинг
Выборы
пові
лишить
черную
предпринять
Минфин
некро
лев
поделиться
запретили
ведёт
Нары
Прокуратура
##мал
попра
##инга
капитаном
проверять
пенсионер
##смотр
Пассажи
способами
нападающего
освобождении
почувствовать
сценария
компакт
озада
столовой
##чивают
Яндекс
прогло
решит
Практически
железа
##боли
узел
соболез
##зовые
СБ
сложилась
безупре
Перми
резервы
успокоить
Тема
разговаривал
Армия
##рог
Улюка
цве
Екатеринбурга
хирурги
##let
стака
##ravda
##няясь
ушло
Леонида
##скова
поселок
популярности
Ангела
Каса
спальню
прорези
Коваль
продукция
выражением
шевели
##шаяся
##ливая
морю
Альфа
предмета
осты
зомби
Tweet
народные
Аста
дуэ
живые
Шам
головного
Лер
оспари
##чему
Аллах
городок
положением
##уд
пуга
пиани
намест
Минфина
Таких
черным
Олланд
непривы
Открытие
посыпа
Мит
банды
Euro
Прой
Граф
выглядели
воспитания
логика
широкие
актов
добровольцев
отечественной
петь
прижима
бензин
карика
разыгры
приходить
##rag
принадлежности
катастрофи
мороз
поездку
обвинитель
##нично
проведению
женщинами
##штаба
проти
ужасом
красивой
туропера
канцлер
школьных
ствол
автомобилем
##ЕЛЬ
загра
Добрый
##мелья
Безопасности
пират
поблагодарил
материи
уход
Возьми
лингви
бумаге
##стабили
бросились
##числя
пенсионеров
нарушил
Джин
строчку
Пят
успокои
проспект
лодок
Круг
авиауда
голубых
Кое
привлекать
Лук
1890
изготовления
ГС
##ĐžĐ
неторо
впрямь
партией
1897
акционер
##тографи
Сэр
##дорович
отпустил
лодку
##рини
##рять
пробить
сражении
ГА
Показа
носили
волнует
испуганно
Еро
подры
##шт
старую
Кандида
космети
расплы
ссылку
трем
101
исполнительной
космоса
Замет
МиГ
Югославии
ави
Space
сражение
приключения
##ька
грузовик
Дэй
Гражданской
Лё
мамой
##чёв
Шойгу
##била
достопри
Баль
##сяга
AH
тонкие
доктри
рисунок
спортивного
шикар
##иска
жемчу
нра
прямым
Борисо
##дый
покупателя
напле
замолчал
методом
перемирие
сельских
цифра
местность
особенного
федеральном
##ордини
щит
страшный
##видение
такова
палате
сознательно
Иосиф
выбрасы
##правду
недостаток
относился
апло
портала
стес
Полагаю
наск
использовался
примеча
Князь
повода
гно
хрен
юга
исполнителей
приобретен
али
алкоголь
Путь
прислуша
Ростова
Куйбы
железных
категория
понравится
музыкальный
неисправ
отбор
##вину
одеяло
перечисли
Тихоокеан
Одесской
##дительно
Покров
музыкальной
At
протестан
##шенными
Узбекистана
пустя
Стефа
героем
смеши
кабине
наличия
важность
##ложено
присутствовал
отыскать
Спокой
have
Полит
##щиной
Собе
усиление
Империи
митропо
##зерца
широкую
сорта
выразили
##жик
установок
Отто
Администрация
Co
вещество
Полузащи
Афганистана
##ведем
возвращался
##ley
тексты
##хозна
садов
реви
##кевич
##томи
сериале
спустился
углево
##ровень
деловой
настройка
##MS
Нападающий
подсветка
Скри
##чания
увеличивается
рес
курсу
ОС
введены
классической
кулаком
художественной
маме
Сва
шоколад
происходить
Внутрен
уголь
##зилась
расследованию
выполнены
##нования
ухмыль
отправляется
определенного
do
отличился
введении
##вон
Провер
раке
местном
AK
Билли
вооружении
##ДК
каналов
расход
Ираном
морские
стенами
защитил
нед
##помо
Миссис
##yn
##тируют
поддерживал
Арно
простое
1903
Кризис
осуществляться
совместных
д'
пятеро
отрядов
угроз
военноп
Роналду
Корее
сыр
воп
зампред
скро
уговари
обры
роду
богат
благоустрой
сау
плоды
##яна
спортивный
Сни
скопи
##мео
извра
самона
шириной
напрасно
преподавал
##украин
начинали
Мега
редакцию
горных
нелегко
##писал
темой
отчете
периодом
Самой
##ждь
рынков
владельцы
советника
отчета
съём
##ero
уровней
Нижний
родного
Моисе
террористами
промышленной
внешним
##довый
присоединения
отмене
условие
признаны
договору
Чечне
нера
представляю
Заслуженный
футбольных
up
основную
подсветкой
Дин
Прогре
глупости
##йки
сложившейся
длины
Game
хорошем
##женном
Тради
присло
племена
коллега
сапоги
функция
певец
##дд
##развед
июнь
вируса
остальными
танцу
кадр
построил
##гле
##дома
листьев
грохо
держится
отеле
комплексы
новин
офиса
Мэн
##ise
удачи
блокпо
исключить
##ппер
колес
горит
добле
течению
психиатри
выстрела
приуро
проиграли
##шут
постоянный
баре
дядю
попри
газопровода
мадри
неблагоприят
УП
вещах
##ada
фактором
содержат
реагировать
голубой
добиваться
трапе
Можешь
##виц
Антона
рем
Балка
четвертом
форси
Московская
сменя
плата
поклонников
скот
византий
наблюдали
кося
##респон
##монопо
холма
##сером
кожаными
группировок
спасает
##кі
переве
Депутаты
означать
##чиями
музыканты
принята
пили
##мостью
Марты
Gre
следственного
кону
ВД
Пай
##стский
Дек
дефек
Собя
серьёзно
##жках
морем
звонил
Скон
Миню
##денко
госпитализирован
приедет
проявить
##менем
##левский
второму
Миллер
Крав
увеличилась
провоци
палом
доставки
жидкости
145
умею
##бавок
Пода
родила
задолженность
заключён
##просить
обвинений
пользователям
нога
Словакии
книгах
платежей
пропи
пасту
истери
ссылке
102
Народной
регулировки
шёл
перере
замены
кричит
##таре
читает
##чиваться
##iel
национальные
доклады
деда
усиления
118
Ксения
Народного
нужного
##етами
сбрасы
спокойствие
диска
Справ
терпи
##ОО
Уша
##аппара
страхом
хранение
регистри
континен
респондентов
образец
бала
плацдар
демонстрирует
Барселоны
написана
послево
##скаки
созданный
растение
нахожу
страницах
равновесие
спортивные
##бана
##бром
вводить
отечественных
Леди
сложилось
метрополитена
укрепление
Мене
##udi
Милли
Хло
отличался
Участник
факторы
Родители
AF
предприня
эффекта
бесполезно
необходим
единственного
вывер
##нея
возз
##левых
хлы
долей
ассоции
Готов
##производи
Яросла
восточнее
пригро
##ничный
Роснефть
наставник
прекращение
подписей
рабы
рецен
тенденция
Сумма
разноцвет
любишь
уничтожили
бюджете
консультации
занялся
законе
небрежно
Нема
вздрогнул
балет
Нес
дыры
зеленых
шара
впадения
страницу
зрелище
доски
физического
##кнуло
##lex
приватизации
релье
se
##роси
насилие
умение
Ингуш
Собо
союзники
концерта
##дись
##лют
юрист
медика
хана
ставший
Документ
чистая
сак
Спаса
Бэй
##дителю
овощи
интим
Вну
предоставлении
нажал
претенден
академию
полезно
служат
западнее
авиация
Сел
прой
##купа
Кирил
агрега
##товский
Рот
тока
будьте
3D
##тывать
##ale
##зды
##дях
##ковано
зарплат
Новгороде
свидания
терроризма
сюжета
дог
##хуа
Правого
##надцатого
all
программиру
прекратил
Диего
Местные
прошлогод
домашнем
карди
фри
подтя
##нты
Res
##проект
##шник
Мэр
Неболь
держат
Джеймса
белье
показывая
идеологии
##квизи
немецком
рати
испугался
Орле
экономическую
Посмотрите
польской
Эш
##ВИ
статистики
ссылаясь
древнего
##сями
увидишь
обойдется
Аргентины
воспа
описать
##новому
Касья
просту
повреждений
отсро
тяжелая
записку
освет
чашку
дестабили
буркнул
греческого
спросили
предлагаю
ві
трагедия
проявил
мировую
##льцы
праве
небу
##графию
картофе
рассмеялась
организовы
предприятии
ара
Спец
возьму
подбассейн
присутствуют
послуша
материалах
родным
репли
##МА
совето
низким
готовятся
Вере
проживают
Госдуме
удобный
очарова
BM
Блат
прокуратуре
мента
допрос
латвий
##ламента
залог
выпил
заключению
приступ
ячей
наилуч
советская
Toy
близне
Ева
услож
передвижения
приобрела
методами
##санк
задержать
нюан
пережить
реализация
1902
подсветку
величество
оказываются
##лт
зелен
Волга
тяжелого
публике
бокал
спала
Вади
лейтенан
завершении
научился
веб
экрани
Рок
##вшемуся
иностранной
слышит
погоду
One
Марс
возможностями
##права
##образие
##скаль
##дью
##рі
записей
##летняя
Полицейские
Деревня
FI
NASA
Норман
##edes
проведён
отрыв
##нейшей
купили
настаивает
трога
интегри
серьезной
показывали
Se
тонне
приступили
постоянных
##докса
отрез
втя
МТС
##ризации
##дину
норвеж
подобная
примеров
осме
ножки
Милан
Дебальцево
применении
монопо
понадобилось
итальянской
##делись
##несло
##станций
Дель
Киров
##зай
##пасно
намеренно
примере
наркотики
зати
встря
перепу
процессо
смири
Награ
приведен
сущность
опасаясь
##32
препараты
##бак
анома
##ваемого
##бился
основание
данную
Нижегородской
##связи
Республикан
балета
Майкла
высокое
##зовых
выскочил
Благодарю
вине
Швеция
ископа
высокими
ведущей
наса
пі
Уль
org
##НАС
тонны
состоятся
Пуга
недостатки
контролю
геймер
вздо
выполнении
соответствующего
перемирия
объём
Северном
подож
##EC
насквозь
Павлович
англ
##шнее
Кавказа
громче
Хозяин
крейсер
отражает
карма
южнее
##дикт
Ини
##става
жительства
##низм
##стало
##ery
правильный
##прокуро
площадка
##бот
найдут
КС
небольшом
закрыта
Семё
##рие
пин
единство
Говорит
ЮКО
##нду
предпочитают
нежном
владельцем
действием
##веты
запланировано
доступны
прожил
##дрома
Наверняка
соверши
дисциплина
Волков
узнавать
звездой
##чав
совесть
инструкции
##гура
перемены
СЊ
##троп
общественно
##теи
достойно
феномен
жертво
покля
атмосфер
неприемле
Царь
воссозда
экономическим
переправи
вправо
Нижне
темноты
##AR
IT
коти
##льщиков
образы
добыча
плохие
непредсказу
Международная
производителя
немногих
курсором
взрослые
называются
сконцентри
маркси
яркие
ушей
эксперта
Остро
наладить
Жак
свире
аксессу
созданием
пош
##фар
##ственностью
Киевом
Гил
Свою
тянет
Клу
оскорбления
соперник
осуществляет
обладал
##спеча
студентами
культуру
течения
негодя
беспилот
преподоб
отрави
##rit
зарос
романе
Рю
##тозаме
стесня
кошки
##цком
успеть
ярость
рассер
тревоги
состоят
##ляй
экрана
наблюдение
играю
северных
##зв
##силась
занятости
фантазии
редактора
пнев
валют
мальчиков
##дость
Star
глупость
сном
энциклопе
Сбербанк
Оппози
##чивые
гарантий
Фрэнк
выпускать
##делец
Pravda
реестр
пролив
убеждения
##муд
автобусов
действующей
инфляция
использованы
##ппо
забили
подставка
Небе
помогали
##рующим
##шную
опубликованном
неэффек
правед
##ровы
скажут
##мунд
частями
образованием
Колле
Яценюка
взаимоотношения
закрепи
эскадри
127
идеально
противостояние
Опубли
##шняя
тошно
##ловки
региону
крупнейший
заявляли
##лька
Барселона
яркий
плавно
##хознад
нереши
Рейн
кругах
##бает
##мари
Нижнем
полей
цепь
приезда
опусто
урожай
##разде
поступления
участника
выходом
приступил
забот
отремон
членам
стражи
постов
Спаси
атмосфере
зверя
Вернувшись
фабрики
оставляя
БРИКС
##хэм
соборе
ликвида
pl
финансовую
ткань
сомневаться
Нач
поменять
выстрелов
##ЕД
IX
##пустим
##нцев
параметры
близок
ввел
126
присоединились
IS
##вский
акционеров
##BA
сигнала
живое
задыха
конфликте
##ьером
добрались
Романа
видение
забывайте
лондон
праздники
служили
сайтов
океане
авиакатастро
долгих
Парламент
соединений
рубашку
подавать
столкновение
понравились
Ряза
старости
лучшему
##техники
общественное
задал
съемки
Допол
дожидаясь
получивший
Ной
Иркутской
паузу
Берлина
перена
##дник
обладателем
обвиняемого
##уэр
городке
Мистра
раскрити
вкусу
Россельхознад
Мели
Находится
строения
##ткин
продолжаться
гитлеров
мальчишка
крушение
Галина
серые
Хельси
пятой
вли
китайские
сжал
##ик
Мел
Славы
Нер
крупнейшим
Общий
##старе
##po
швыр
##нически
##хол
драко
лапы
заказу
труднее
##тны
отзывы
Монако
резюми
залив
##жайте
Келли
техническом
французы
##шется
диагноз
распорядился
люд
Твор
Пота
сотрудничеству
работник
##сились
##евка
располагался
отвернулся
Лариса
посмер
Урала
советов
px
Аван
Стали
атмосфера
присел
направленные
##ствующим
што
продлить
задержании
Таври
##сурд
парашю
показ
##enc
Останови
мощи
Поня
Бин
переехала
французские
##корто
авария
диплом
поступают
Ефи
моряков
располагает
королевской
сати
насекомых
бронет
Считается
относились
Швар
перерыв
маршрута
##ваемости
Огонь
сборных
Данный
мастерской
чье
двоюрод
папи
государственная
##зла
взрывов
личном
выглядело
Боевики
округов
индек
опроверг
предоставление
надеемся
Веду
прикреп
технический
пробормотала
##lect
Верховная
причинах
крымских
добились
##ke
пьесы
тетя
ЕГ
кота
доложил
беспорядков
мёрт
дяди
##льщики
##стовая
##темне
доброго
##ристов
повяз
военнослужащие
камера
железнодорожного
экономическая
пятно
##гл
##лас
##водом
конкретного
девальва
особые
отвечала
Митро
ПАРНАС
важна
Усть
красоте
Tr
снизилась
подсчета
пещеры
##чусь
предполагал
геологи
задерж
##org
разоб
вв
Музе
помы
свидетельство
ели
охоты
ландша
Башкорто
били
ноябрь
втро
240
религиозной
Взгляд
задержала
посмотрели
комиссар
кусочек
сроков
убь
шасси
старому
издалека
##бюро
заглу
канали
читали
реализу
совместного
полуно
особенностей
Стри
##рана
##льским
##няков
польских
Мемо
нен
Литера
чушь
пользы
Точнее
блага
Арби
Родри
Стер
глянул
Рене
войскам
Торонто
Юрь
носители
сигарету
Тет
оркестра
##дении
платформе
##лову
обыски
первенстве
##щимися
Ужа
##99
лесах
##me
свадеб
произведён
Int
запута
Джан
недвижимость
рукопо
Хотите
оценили
довольны
досту
досрочно
наступил
Друзья
устаре
попробовал
##кистане
персонал
расчё
подполковник
белое
##глуб
разошлись
спарта
реклами
Оз
институтов
##деп
Контра
##берут
встретила
мешать
старших
Театра
полуостров
стояло
##ett
ядра
Брод
плит
Американские
##ЕЙ
формой
Горя
##НИ
сибир
скру
Кисе
Смоленской
посетители
лобби
нефтяных
вынести
Укр
аэродром
скончалась
вменя
простая
кожей
##News
кулак
Золотая
продержа
Хм
##льса
Пас
функцию
прибыла
облегчением
реальная
каналы
стрельбу
присутствовали
Поверьте
соответствующей
обстреляли
моложе
сферу
существовала
блондин
ученик
контракты
поднимать
образовании
Чарльз
Екатерины
антен
меморан
Довольно
##юзу
запомина
двигался
переговор
расчеты
эконом
летит
жарко
лайнера
копий
предоставил
испытывать
противодействия
бин
молодец
Амстер
обмени
выполнял
##ana
##восток
Жерт
##ТУ
приспо
гитари
содержать
отдельного
ресторана
беременности
Витя
здоровьем
митинга
##ньте
##ьючер
##стику
прома
##ниса
Будапе
##фой
японских
##тун
экономическом
сигналы
чтение
торговля
территориальной
мурав
народе
широкое
Фео
Средне
Твоя
появлением
##шень
Родина
включать
ракетных
Прият
художественный
дифферен
ПК
многокварти
осведом
итог
животными
МС
##anc
Шон
##пис
климата
мобилизации
Фан
убивают
попадания
134
явлений
пронес
Đż
хали
оказали
иностранного
эй
перевозок
Абромавичу
демократической
метр
##мому
местам
Мюнх
представили
Женя
атрибу
канцеля
разрешил
называлась
исследовании
соединение
РККА
##нджер
культурных
часами
##бюджет
Деми
Ne
1901
плеча
обидно
##дером
разное
партнером
выдавать
обзор
залез
##платель
отража
преступной
сообщала
прост
##летка
ящи
архитектор
Университет
##бру
комментируя
чистого
сломать
указанных
1200
забор
моды
##филд
математики
металло
##лочка
планировали
травми
Дау
Полузащитник
нанима
##рологи
пети
ВАЗ
Полковник
организованной
передавать
полагать
катастрофа
##nik
сферах
тома
Италию
журналистами
Плу
Реала
навыки
##кай
ун
уехали
Тамбов
148
непрерывно
виноград
заявить
##ald
вылет
уехала
Диана
Is
##тайн
покинула
Врачи
причу
озвучи
литература
адъю
коробки
стремятся
опытный
индустрии
убытки
испанского
##ническим
лорда
##pl
Guard
учителем
##ствовав
недавнего
опло
Прай
Бизнес
Регуляр
макросов
##рядно
капри
недовольно
западный
десан
названа
##яла
##тиву
перепро
звонить
карау
Туда
поклонился
учреждениях
Кавказе
##гивать
Департамент
##лкнул
столб
Эбола
##вется
почитать
заключен
Аш
##ладно
Хорватии
Фридрих
подниматься
прику
##Сѓ
Следствие
Пти
мошенничестве
КР
излучения
застав
заведомо
лесной
каблу
Toyota
Ог
предъявлено
тотали
царство
любимого
проиграв
Азербайджан
несло
сосредоточиться
неуклю
имеющий
Берна
Жил
мертвых
сеан
Жанна
Бесс
раскра
организме
операторов
телевидении
нормальные
##enta
битва
значительный
исполнил
Небо
соав
обращать
золотую
ролик
##нот
вытаски
множеством
Коста
выделено
плоть
дополнительный
сумо
ожидала
крестьяне
мероприятиях
беспило
Джимми
необоснова
##ливые
заинтересованы
монархи
классы
Муста
потоки
Рј
Светла
договоров
Интернете
Щер
поводом
разницу
блюдо
##rist
Квин
подстре
уй
Алан
вправду
шутки
карточку
искусстве
ищу
##ляне
размышления
##Đľ
встретится
##oad
кодекс
платит
Андреа
серый
Дэние
листо
брюки
Фрун
заблуждение
дереву
##доры
прозвище
иномар
умно
похло
темных
вертолетов
биржи
дышит
##пл
Анджелес
сиро
наклон
##наго
польский
##ington
синий
брас
ранение
отпустить
англичан
##нялось
трудоспособ
AM7
Клер
исключает
маска
стихов
оперативной
отделом
орбите
AH7
происходили
малый
сигнали
AK7
##европей
лягу
##зировал
социологи
##фен
проводиться
метода
##СЏ
копии
нелепо
Бря
случившегося
##бого
видеока
бассейновому
запрете
последовало
завоевала
##гуа
##гласно
оперативного
составом
Дарья
единица
Вася
контактов
дорогим
Гвар
коммуникаций
красными
управляющий
живы
всхли
боялись
традиционных
тамож
зима
собралась
богослу
ДО
познания
##ють
Красную
работаем
Хок
полезен
##щееся
##vel
гордость
рент
складывается
Европейской
комик
Семья
Свой
смеха
##ma
прекрасная
туристы
##правитель
##знь
сошел
едут
спутни
ветки
ходатайство
Ков
сбежал
повторила
похожее
вырваться
вещами
##31
обсуждают
образцов
позвонила
фотография
фондов
Видно
вмешательство
чувствуют
всюду
крупная
поврежден
Джоан
круглосу
упер
врата
тота
шпион
люк
незамедли
плевать
импортозаме
проезда
независимых
Hy
некоммер
##брю
своло
Песня
возможны
разряд
Настя
Примо
десятилетий
виноваты
пассажира
усталость
передала
тройку
##ini
шты
досталось
сумки
мертве
съезда
##яснилось
##мением
Подробности
изучению
логично
сплю
влево
мячом
банковских
пир
Ольги
Европар
заша
фанатов
марша
каст
поверхно
эксклю
##дерс
начнутся
##зится
##лум
Франциско
##шину
допустил
##леной
направлениям
Борисов
ставок
Сила
строки
##лио
аза
монахи
воспользовался
дружбы
избегать
впа
кольце
дивизион
Ближнего
свидетелем
сестре
приказы
окнами
вызова
свечи
преступника
максиму
поставлен
Прим
головной
разместить
пригласить
повоз
##альным
##фоне
дальнего
суды
занес
ценных
Никитин
##стрема
##PS
Горького
##na
снайпер
седьмой
расправи
отру
бас
111
Итальян
смертельно
сняла
##ловича
редкость
Правый
звучал
ПР
помога
##ється
увидите
рейса
керами
улыбается
Кл
##хат
неактивными
Анатолия
хорошенько
##рило
Подобные
пульт
Баварии
снижению
долгого
##ллина
##режи
##нового
содержимое
напоминают
образовательных
прежние
правление
заведующий
рассуждения
ограничить
Кё
коммунисты
турнирах
резкий
воспитание
Мексики
##пон
выклады
сканди
посёлке
Патрик
тонко
Жозе
##ническое
держала
тонкой
Иоган
Корне
5000
двинулись
##сая
жереб
климат
##ренная
Филадель
##мового
##сажи
We
обратили
разбился
Караба
присутствующих
##алов
##фля
##лену
##ott
Лас
веки
##пий
примера
нужд
##санта
Пару
легитим
##фир
##ствах
##щица
##делась
Энтони
концерты
расположенного
Новороссий
наступила
любопытством
астронав
филиала
орденами
занимали
Ac
приблизился
восточном
предыдущей
темати
146
одиннадцать
Итого
сэкономи
##ПО
##тологии
##bes
обладатель
лишних
телевидение
вернули
##лках
РµР
корпорация
слабе
тариф
бесшу
хак
одеты
валюте
Посмотрим
землях
Фреде
МК
дополнительного
возникнуть
идеей
Ито
резать
am
Скотт
вынул
пород
музыкального
##жину
груза
Любопы
##зировали
no
устья
воспринимать
рассчитывал
##вопо
положительные
Поле
местное
пустыне
отходов
карьера
##дования
Эхо
преступник
Ростове
некое
подза
защитой
аромат
##ського
выборе
премия
рожде
знакомым
Аравия
торговый
##нистов
текущей
аренда
блюда
Сергею
представителям
Чува
Кэр
повторять
##кризи
чемпионатов
тишине
съезде
клей
смеяться
плену
##возз
голово
##висты
головами
##аа
разрешением
нежи
существовали
понимании
дотя
зме
показывал
надё
тонкий
духовен
ключевой
выборами
Наше
вско
скота
принесет
включают
No
Бюро
прежних
репер
убитого
плакать
оружей
Влад
##моло
прича
памятники
казна
лидерами
Новосибирской
Маргарита
госпитализированы
резервов
##ase
стремился
продемонстрировать
Альберт
уверенностью
Поте
Дима
проиграла
предоставляет
us
пятнадцати
портале
цвету
##ехав
распоряжения
Силы
очередное
двигателем
драки
Nov
элеган
##rian
населённые
круге
равнодуш
Польшу
потенциальных
Telegram
внешние
Рик
устраивать
орг
Орден
##дни
повышенной
Mercedes
реструктуризации
Речной
Саудовская
получилась
##line
Суво
ах
полуфинале
предполагают
свети
Блок
городка
диаметром
пациент
##бираться
Атлетико
медики
выиграв
пригод
закончились
задавать
источниках
отвечают
сельхоз
##osh
Мерсе
доброво
Казахстане
техникой
осмотрел
медалью
посмот
##льнее
горячо
коробку
закру
сердцу
анк
Шеремет
оккупан
тайной
Запре
Союзе
##ЛИ
аксессуа
ученики
университе
##бков
брифинге
указом
##брод
финансово
назначена
лететь
приче
скажете
Дагестана
каму
шестьдесят
##тенберг
благосо
тварь
важен
устанавливается
холодным
##скала
внедоро
дружно
французском
Дорога
Джорджи
найдено
необходимую
приговорен
пользования
ad
помя
крючок
принципа
выражении
вкра
авиакомпания
##стились
Ричарда
лесов
сделка
меча
##чатый
достигло
совете
Корни
подробнее
прокат
Кристиан
краски
Иерусалим
прогрессив
Вега
техническим
Кира
сходить
размы
казаться
защища
кувши
портфе
Ge
обществом
пенсий
чудеса
ставится
Млад
##тыся
подсве
выдер
любя
редактором
Федеральным
Криминал
тайм
гостиную
##кало
##стел
перегля
охоту
##стол
умирать
воскре
мотивы
содействие
корм
величине
популярной
невро
концепция
флагом
прибу
сообщ
отталки
Mc
##исто
падать
звуко
коктей
направились
боясь
##тиком
##зированной
bl
разведку
Леви
представлено
Пекин
узнают
Бене
##пета
Англий
Путе
постсовет
##_t
Семи
украинскую
светодио
становилась
сохранил
Службы
кукуру
вернемся
##мела
Ся
холдинга
озере
англичане
скле
##фами
разброса
принадлежала
##рских
антисе
купила
металл
долгий
американскими
богатство
##льское
##лышав
Кондра
лоп
тысяча
суждено
Сюда
##изма
переворот
прозвучал
красная
##жец
ГЭС
призёр
Вави
##err
столица
отрабаты
рег
сотвори
##чевать
Помните
представительства
разделе
##шного
Проща
похитили
сыновья
назначении
посетили
тревогу
Возбу
центральный
влез
частный
Распеча
блокады
касс
Саймон
мирный
гаджет
Рґ
выйдя
возбуждении
Хороший
##BS
серьезная
ногам
Индонезии
Хмель
постоянное
##яснить
главном
129
дополнение
составлять
ТЭ
терапии
Петропав
Дэвида
##agen
поясняет
Лорд
проигно
зашли
Guardian
конфедера
##box
Арена
возлага
завоевать
считаешь
пошевели
##моро
спинку
материалам
отечественного
пересечении
несостоя
Барака
##пса
организовали
отпустили
закро
водохозяйственный
творится
Black
имелись
насу
решив
вих
##прови
входило
посвящена
Ове
удво
##пьютер
Елены
арестом
разной
сделок
Черный
##милась
приступить
Божь
Петербургского
общин
результатах
Шен
задолго
молдав
носителя
беспокоит
очко
насти
смеси
выли
подписано
Dis
потянулся
компенсацию
суди
##ёры
Ов
неува
##шейся
еда
надоело
провал
надеждой
увеличился
продолжалась
##рядок
##льи
Вильгель
актрисы
Видите
газетах
жесткой
полузащитника
загрязнения
случился
Соли
торга
пристра
восприятия
пожарной
кантона
лор
Защитник
труды
колхо
ел
принимая
автобусе
заслуженный
спонсо
настоящих
##тях
диапазоне
##ппе
АССР
Физи
Венесуэлы
клубу
Лес
оказывают
поместить
Wall
слуги
Уч
Возле
##тировала
##шевский
нокау
повин
Белоруссия
мировая
Чечен
темпы
милость
интересных
передней
признана
нея
решают
##оло
рассматривал
черное
##сик
улыбался
всякую
рыцарь
##бры
контрактов
Араб
выки
осень
Здание
##47
Алжи
неров
НКО
колесо
замена
##ble
##гос
Фай
АС
опрос
Бору
серо
##люк
Тыся
танец
поддержания
кВ
спад
программой
##партий
вырастет
фактом
супруже
Чемпион
уселся
телеканалу
настаивал
обществу
республика
##фессиона
вратаря
усилиями
147
Росс
звуком
увлек
Организации
Редак
реклама
##IS
but
тщет
завали
##кладка
домик
менеджмента
мертв
национальности
ближайшего
фолькло
##дольф
##рное
плече
##нётся
Мно
радиоак
продают
коснулся
нашлось
необходимостью
сдачи
тайма
абсурд
стратегического
музыкой
инстанции
точностью
отбира
##ливым
Примечательно
Таджикистана
длинных
ответов
паспор
владение
##ложена
задуматься
Джонсон
мечети
эпидеми
Вклю
хихи
Служба
духовного
Акти
Airbus
пахнет
дождаться
Поначалу
японского
##ритар
пересмотреть
расформи
##нейро
##ited
салона
##ногу
подъезда
пропаганда
гну
объемов
1899
торги
##план
трава
Королева
космический
##цки
Объем
терпеливо
##avel
брев
частицы
##кинг
##ныч
Главной
поступки
температур
деклара
упасть
ложе
переименован
Сом
нетерпением
preview_
текущий
обращался
Калифорния
ценам
Алба
контраба
важная
превращаются
документами
интересного
Терро
спект
оплату
##стив
внесли
##шилось
Шесть
пополам
##совым
##туар
развернулся
##верие
телохра
номеров
безработных
заведение
соблюда
жива
фаса
бессмысленно
дочка
бриллиан
синие
пожелал
сотрудником
жертва
1898
эстра
комплексе
раздви
хер
фрукты
вырабаты
Улы
приборов
родные
ролей
написан
Нага
##ректи
надеются
##шом
странная
Жуков
предлогом
превратились
##чностью
Никакой
назначить
взлета
сходство
зарабатывать
переспросил
распоряжаться
обеспечивать
cl
Великая
##лос
опасным
рассказов
номини
жидкость
Нидерланды
Луна
штан
##дос
Изабе
Вначале
вгляды
лесных
Никакого
предпочел
прекрасной
змеи
набрала
энергией
жд
Уровень
диско
созерца
алле
Юно
вывез
критиков
вступает
Силуа
злой
расы
фиоле
Клим
мировозз
##щенными
Корпус
дракона
закричала
продуктами
лезви
поручение
пче
НБУ
стили
прямое
аналогичный
танковой
спокойной
украи
1896
зав
##евской
креа
##таркти
мероприятии
управлен
тенденции
фотографиях
бру
ошелом
сформировать
полицейским
эски
ОТ
диване
бедных
136
снегу
Юпи
Иу
##строить
курить
Другая
мирное
вниманием
камнем
беседа
доцен
поистине
удивления
переправ
Искус
немецким
##стата
охота
Воспо
##бека
варвар
хирур
##лык
изрядно
ходила
Чинов
охваты
##чкова
Беля
##прашивать
шлем
определил
оск
вытащить
пуго
кредитной
##фикацию
судебной
##группы
скрип
ближайший
Ленинграде
значительная
Ночь
призывы
##port
парус
собираешься
##AA
умудри
взлома
ночного
усво
Еврокомиссии
малыш
##нети
Буш
госпиталь
##сслу
олен
##вист
##етех
дракон
славян
милиция
рі
легла
коров
бежит
просмотра
##ount
продолжалось
южных
делегация
состоянием
установку
Цены
железная
##дович
149
обязанность
отныне
потребовалось
череп
финиши
отомстить
эпизодов
реставра
обзора
держался
лобо
естественным
Распечатать
подбород
написаны
сбежать
##хнулся
спектакля
Наука
неудачно
Блю
##рте
статистика
##oto
Ford
антимонопо
конфликты
монаше
традиция
шт
Австралия
расположенной
Пост
отказываться
стабильность
Австрия
##NS
заглянуть
поработать
Забо
##дун
шахты
металлов
предварительного
европейский
##gel
планировал
снимает
несов
переходить
обеими
Филиппа
Участвовал
выступит
долины
связывают
1880
коррек
направленных
AFP
приобретения
гравита
плотность
уменьшить
закончила
настоящую
происходящего
парад
пок
устранить
подборов
боевую
Герцо
Мора
юмо
Марш
Витеб
спеша
Руби
четвертой
специальная
##дании
мака
Победи
внеочеред
##ститься
обычное
Red
герба
называться
чемпионка
крикнула
заключили
Штатах
запросто
американец
ВГ
цыган
Кас
Севастополе
неделя
большевиков
отдыхать
##товом
##ition
немецкая
огоро
Процесс
культурной
овра
брау
##ської
трудя
Азиат
доброй
игрушки
сотню
прижи
мобильный
умрет
дыхания
##stem
119
Федерация
преступлениях
доллару
март
прочая
инвесторы
обид
возбуждения
##веров
обыча
патронов
##выря
мала
экологии
специалистами
1812
гектаров
##теть
круги
тона
трудов
отдельным
жилые
Марио
именами
обрадовался
Краснодара
сумер
валюту
интересная
Саму
##шкова
Ленинграда
Вилли
серебра
зерно
Оксана
mod
читала
английских
##бэ
казнь
перевели
несли
напомнила
колледжа
проверок
температуре
Мартина
##льники
поступало
Чаще
Верхне
схватила
Рука
верность
нужный
ВЦ
платок
##стий
боку
Звезд
государствами
Добавим
адапти
##ницам
Рах
повстанцев
ученого
корабе
мониторинга
мышкой
наказать
СВ
##числения
сепаратистов
виновен
вёл
##лест
теоретически
сливо
экономическое
потребовала
отвести
Ште
букси
стратегия
рабочем
безмол
умом
Финляндия
Грузия
сборы
ждем
Язы
нащу
прохла
башня
##мала
Records
бизнесе
нужные
##OR
палубе
Хотел
буквами
болью
слан
правди
поставлена
тяжелую
фле
полные
неоднозна
мелочи
##руемых
прогулки
Оконча
Charl
пассив
дойти
поднимался
желательно
иеро
едином
Сели
активе
чешу
alt
условиями
Праз
##матических
Новосибирске
Проко
ослепи
##ренно
отложить
покончить
встречах
нарушать
показаний
Спер
воспроизво
размещение
возможен
непосредственной
лихорадо
стабилизации
##чива
событием
обходи
отрицает
объявление
банком
Пола
##ican
льви
яростно
восторга
координации
Дрей
буржуаз
обновление
Люксем
уплаты
him
Лиз
ссылка
дрожь
снегом
##косро
Пика
750
несчастный
звонка
отличи
обозрева
##ЭБ
недоо
авантю
эры
опасный
объединить
Уго
##гион
Мили
Univers
боковых
net
Лига
форварда
открытую
перелом
воспроиз
дорогих
##семе
Причём
плот
##por
Члены
поправок
1860
ближайшей
##щуюся
кредитных
##льс
засло
##лировать
анархи
священно
тарифы
пружи
журналов
обсерва
бессозна
старте
орбиты
Лева
припарко
знакомого
драться
Попу
бюдже
разбере
кель
Нур
##сну
Fi
##еве
многократно
отступил
соглашению
Нена
полупро
лицензию
хоре
Альбер
видам
высвобо
##щенную
королем
##пик
бодро
препятствия
слуг
уборки
##вского
##рется
необходимой
сравнение
##шкам
бандитов
телефоны
ребёнок
проектах
коалиция
Яблоко
стои
антидо
Совме
могилы
Юли
коммуникации
фьючер
Семь
##ницкого
международное
##able
Срок
яиц
Керчен
ПМ
равна
бизнесом
Мировой
семьям
организован
переиз
отмечено
узлов
баз
this
ибн
текстов
##лтана
испанский
##press
заднем
традиционной
СНБО
провинциаль
Бат
Чтоб
однокласс
агрессо
ПАО
инженера
некая
корона
мемуа
фли
разработчиков
Удар
церквей
создается
выбрала
##медов
исполнительный
определять
удивил
разграни
комплекта
выходила
##нтети
Приня
комнат
##дорова
намерение
Жар
предприятиях
стратегию
вздума
простить
мультфиль
##логу
Какого
учениками
авиационной
петербурж
сирийского
дошел
пластика
регулирования
заверша
Ребек
##шон
учёный
гусени
Понимаешь
нечем
правонарушения
соблюдения
арабских
Краснодарского
деревянные
Киевского
назначили
раскрыть
отправится
##хана
показало
многозна
Вернее
##леет
торговлю
Горе
впада
Комплек
комедии
подтверждают
гостям
глубокие
подозрение
поездок
нервни
основными
плечах
профсоюзов
утвердил
1870
переживания
##шевского
##саки
аналогичным
длительного
##льфа
Васильева
старое
тихий
оркестр
обстрелы
соседа
извлек
Wi
привед
настрой
Всемирной
##каясь
обещания
приборы
теплой
##фоны
баба
указывая
1895
акты
крейсера
Алексеевич
древности
грун
пророссий
акта
конкуренты
космодрома
##amsung
бегать
##етт
##делении
претендентов
телеведу
my
Смирнов
##erg
отвлека
украинское
определенное
уходил
Освобо
проведено
одними
бедности
стартовал
надписи
техническое
корне
оформления
лав
Десять
вошед
величины
артиста
гры
##шегося
Вилла
назывался
Свои
звездо
##ТЬ
жизненно
приложений
ухмыльнулся
##плыл
##тинентальной
соответствующим
некому
трибуны
мужики
разрешили
операциях
объемом
побери
Янукович
аргументы
##ерей
подразумевает
неуверенно
религиозные
Причины
яз
Кат
импорта
архив
##ропо
обсуждается
обувь
кусты
було
батальонов
раздумы
вставая
полезных
##зеров
длится
##ментами
указание
##сала
деревьями
видения
Назар
евроку
ПЛ
##дском
надлежа
USB
Темпера
механизмов
сторонами
немысли
##ир
месторождений
покро
потро
Вал
Шай
Зюганов
существовал
растра
Съ
храмов
Майор
##няло
Боли
букв
##тельского
##леди
##леная
Пензен
горле
проводила
Устье
равнове
счел
поделать
##lines
Мани
разговаривали
широким
Организация
милицию
##que
прослуши
имелось
Ап
137
строится
info
условием
подростка
Пекине
отстоя
##urn
автомобильной
банках
категорий
следственные
Звезды
сугу
Емелья
корпусе
Питера
глобальной
дедушка
##товую
правящей
##iy
влиять
138
беспокоиться
Стэнли
Храм
НДС
социал
последовали
Тали
##ел
образований
##нимом
определению
Эс
наследство
поддерживали
##ames
Эксперт
свежий
трофей
##кладки
Западном
юмора
Статья
бронетех
кабины
французским
советским
посадили
компромисс
губу
Рис
высла
мягкой
Кристина
##дорф
##стическую
вторг
должное
занимала
догадаться
стреляли
минимума
двухэта
усмехнулась
##ovsport
Роспотребнадзора
убедился
развяз
постоянным
лодке
Испа
##фио
преждев
хрипло
con
Сноу
##стному
внесены
низких
so
малай
маршруты
пунктом
массово
Аму
мач
россиянина
постепен
##видетель
острый
международная
неудобно
элементами
соро
держав
отверстие
автономного
Инициа
отмечали
Монре
сочинений
##ull
апелля
песка
ненор
костер
завет
возгорания
широкого
двигались
Роу
вокзал
трудовой
ne
замечаний
нама
ряв
Пентагона
мак
плавания
Понома
трупы
Улица
##ченности
йорк
Хоу
удовлетворения
неустой
Мерт
копы
велик
Тегера
построения
воздушные
инженеров
витами
выдержать
Редакция
посадить
единую
произвел
Блэк
временной
управляет
##брались
классификации
Рин
покидать
триста
отправляли
экспериментов
семена
ОМ
Абхазии
##igh
призвали
академик
##ич
нефтепродук
Завод
##ниор
слабым
следит
##зированных
юридической
Галь
##ures
начинаются
Николас
способа
выполнению
алфа
аресте
мю
прижал
пришель
Энге
густо
действующим
гул
нищ
фортепи
##ото
авиапере
Владивосток
щеке
государь
##шное
##хнуло
благодарности
##вины
##делки
учёных
забыв
Венгрия
грузовика
робот
бывшему
ударить
Разда
Булга
заорал
послушать
временное
ударила
защищает
признак
испытание
Соглашение
региональные
свал
самосо
##лоб
##шова
орбита
лишился
Подожди
адвокатов
Forbes
голкипер
банд
отреагировал
поставлять
упоминание
##ven
экономист
Samsung
Тимофе
гипно
стоп
возвращаются
##совая
подвале
##еней
годовых
##шееся
##несса
потолка
Брайан
расположения
##рившись
витри
импрови
изъяли
художественного
Дев
располагались
##фиг
национальная
Володя
аргумент
большинством
готовя
наблюдатели
сюрприз
##шимся
Мун
Пожар
прежнего
ТС
##бита
##шникова
##хер
##ндра
Кэро
Ив
Великобрита
##ризма
BMW
акцент
##ower
артистов
приграни
вкладов
##каса
протесты
##нителя
Политика
Гель
острые
##енькой
Раде
##дта
дезин
кислоты
огней
указать
гендиректора
танцева
##совый
Напо
электричества
висели
##грамот
прямоуго
##ko
подни
##новении
лаборатор
расчи
выехали
употребления
великое
##РГ
##вропей
##гинал
пересека
Оружи
##цій
##ковод
мура
местная
строгого
минусы
верный
Приз
заез
##мотрели
Джерси
особенность
Гим
колебаний
Наполеона
ценные
верну
Морозов
собраны
стира
ВА
видами
##зания
Исклю
DV
Литви
шестого
человеческое
монах
историко
##комна
сигареты
изде
присматри
выдачи
взглядами
активную
отчу
##ush
пласт
Russia
Хилла
Выходит
православных
царства
Здоро
лампы
##трак
кредиторами
драматур
хоккея
122
социальную
##вавшего
беспри
полуночи
соболезнования
Зал
клиенты
алюминия
русо
завяза
Минне
проверке
мыслью
Контро
плато
##мейстер
видна
развра
надежность
##жская
лига
грузовиков
##меной
железные
специальную
наступит
соотношение
Тамо
Генеральной
передано
Льва
заявок
ПДД
селек
легкоат
##предь
разрыва
максимальной
Длин
Ид
ружья
перемещения
появлялись
богатый
признании
новорожден
##рях
краской
Муса
##вающиеся
##градского
Октябрьской
##ствующей
##321
треуго
весна
Швейцария
завери
Кази
европейским
Разре
внутренним
исчезает
Понимаю
министры
луна
приятнее
переки
врачом
ужасе
обоим
религия
Хака
гуля
Рона
##oss
##рикнула
изуча
##кером
припомни
уважи
##редине
разногласия
Американская
сломан
кастрю
Морган
Вре
шайбы
Башара
манифе
Жор
интона
достала
##лейн
Доме
РА
пропасть
ДПС
Округ
знамена
растерянно
ныр
##do
остальном
маску
пропали
саха
##тиной
территориальных
##стеров
кредитам
напоминал
##греб
Im
##леке
мам
медицинский
##рино
увольнения
перепа
снимок
банкротства
##бьет
антитеррористической
Малой
##пился
##рудно
Измен
ветру
тайна
стараюсь
отклика
молчать
невели
шеве
слабости
заготов
историй
##льят
подозрительно
обязана
спортом
##спорить
##данов
низкие
знаменитой
водах
свист
коллекцию
дальний
##лингов
зачи
домашней
неизвестных
Сети
Live
являлось
are
##петит
замечание
иконы
неудовлет
прики
сдержать
понятное
логике
атаковали
Картер
Имеет
шор
Дайте
корр
краткосро
Рассе
боего
убежища
согласна
принятии
упира
кислород
страшной
ублю
двойной
##стеро
преступники
Социаль
##жаем
Абба
комментария
любопытство
отличались
палата
комментариях
Сатур
Анджелесе
внутреннее
партнерства
исполнял
отличия
порядку
##шн
невыпол
##ді
обвиняется
##думать
Получив
очеви
мозгу
##рактери
Планируется
наставника
легенды
исполнить
башки
фронтах
##48
задействованы
переведен
феода
лекарство
документации
##ливают
бьет
притом
стартует
фирм
Подписы
посещать
Лебедев
воображение
неду
Большую
водители
103
фотоаппара
подняв
различной
остальной
врачу
ОА
политическими
энергетической
##ouse
##баланси
хозяином
Развитие
Новак
переулок
семейство
недовер
Кипр
обращались
беспоща
Формулы
объяснений
дино
##левич
##зоры
Бле
##вером
гулять
##enz
пролет
окажутся
слепо
Акция
##ійсь
еврейского
владел
концентри
доверял
улучшение
Влады
напитков
нахождения
##каре
нескольким
победителя
белую
христиа
Наблюда
населенного
троне
начинаю
репор
фот
лабирин
общепри
Мето
терапев
##ps
смертной
многочисленными
пустить
Всеволо
целостности
##aster
Принц
содержатся
##жись
паром
подъезд
свар
Đź
Общества
подго
топор
Эрне
Балтийского
сыграв
испанской
Скончался
разработал
##мать
украден
стрельбе
экраны
we
##ковская
дошко
##гнулся
медицинские
сдавать
##жденный
личную
собственная
малыша
Зер
зано
слабые
кроко
Задача
Марша
Катери
Психо
Флаг
##ИАН
##жор
смехом
хороша
выполняют
матчем
поселений
парой
Суб
артиллерийских
ставили
концепцию
хозяйстве
принадлежали
Генриха
незаконным
утверждали
##шами
пане
##пати
ставил
высшем
Рогозин
куртку
деления
##ённой
настаивать
твари
диких
физические
Далла
затоп
автономии
редких
контролирует
серого
##строение
##керы
земельных
горячим
популярностью
смет
Звук
паузы
восстановлению
голливу
спорту
проворчал
Адриа
##аки
Сокра
референду
возглавить
##бари
##ТРК
синтети
вручил
вмешиваться
##процен
Марса
обща
сфотографи
знакомство
поручено
ритм
утру
Ханты
мировые
лечить
гвардейской
хаос
участвова
Сказал
высочай
готовый
демократия
предки
убийц
##терых
отдели
панели
секции
##cial
манер
прекрасные
As
Йемене
##рочно
дань
##муника
Джейк
Bar
аллер
ракету
отбора
находящийся
раскру
мокрой
монополи
##сутствие
нетерпеливо
затяну
начнем
ro
проле
##туро
вагона
державы
гласит
##вилась
надеть
детство
Дональда
поинтересовалась
мгновений
ПАС
очередная
мотивация
парик
##мериз
результатами
позы
традиций
резерв
Первую
открытые
##ЕВ
престола
довелось
##ливает
вестибю
газом
Грейс
бомба
коней
прони
демократов
Смы
выкуп
[...]
